#include <stdint.h>

#define WEIGHTS_SIZE 62999
#define WEIGHTS_BRAM_BASEADDR  (0x40000 >> 2)
// Q16.16 weights
const int32_t weights[WEIGHTS_SIZE] = {
    0x0000480B, 0x000051F4, 0x0000362D, 0x00005D84, 0x00005D16, 0x000018C3, 0xFFFFE8E1, 0xFFFFFC82, 
    0x000001CD, 0x00002033, 0xFFFFDBC3, 0xFFFFDBFF, 0xFFFFD6B1, 0xFFFFF6D6, 0xFFFFEC3A, 0x00001C3F, 
    0x00001270, 0x0000110E, 0xFFFFEBEF, 0xFFFFF388, 0xFFFFEF8A, 0xFFFFE644, 0x00001314, 0x00000473, 
    0xFFFFD606, 0x00000289, 0xFFFFFCA7, 0xFFFFFD02, 0xFFFFF2BD, 0x00000D63, 0x00003897, 0xFFFFFAA8, 
    0x00002368, 0x000014DA, 0xFFFFFB61, 0xFFFFFACD, 0xFFFFFEF0, 0xFFFFCF12, 0xFFFFF497, 0xFFFFD751, 
    0x00002255, 0xFFFFF1A8, 0xFFFFF518, 0x000012D8, 0x00001412, 0x00000932, 0x00000FAB, 0xFFFFF27C, 
    0xFFFFD01B, 0xFFFFD88C, 0x0000118E, 0x00000DD0, 0x000009D2, 0xFFFFFB6B, 0xFFFFF9A2, 0x000005CE, 
    0xFFFFEA1C, 0xFFFFD895, 0xFFFFD82C, 0xFFFFFCD8, 0xFFFFE6C0, 0x000024F8, 0x00000E25, 0x00000A18, 
    0x00001157, 0xFFFFE54A, 0xFFFFF49C, 0x00000B71, 0x000000A6, 0x00000B0E, 0x0000024F, 0x000014B4, 
    0xFFFFF34A, 0xFFFFFC45, 0x00001FAF, 0xFFFFFA15, 0xFFFFFA9E, 0xFFFFD742, 0xFFFFCEDD, 0xFFFFDB82, 
    0x00001513, 0x000008FC, 0xFFFFF52A, 0x00000C5A, 0x00000E66, 0x00000A79, 0x000004BF, 0xFFFFDA3D, 
    0xFFFFEB84, 0x00000BFD, 0x00002B80, 0x00001210, 0x00001153, 0x000011B9, 0xFFFFFD4D, 0xFFFFB8DC, 
    0xFFFFBB33, 0xFFFFB939, 0xFFFFE985, 0xFFFFC121, 0xFFFFD0A3, 0xFFFFDACE, 0x0000077C, 0xFFFFF585, 
    0x00001EFA, 0xFFFFF3CA, 0xFFFFF67E, 0x00002682, 0x00000DB3, 0x00000562, 0x00001CA3, 0xFFFFF0F1, 
    0x000024CD, 0xFFFFF0FF, 0xFFFFFED1, 0x00001120, 0x00000A36, 0x000004F0, 0x0000089B, 0xFFFFFD3C, 
    0x00002303, 0xFFFFFC60, 0x00001BF4, 0x00000A0B, 0x000028D3, 0x00000151, 0xFFFFF843, 0x00000A34, 
    0xFFFFD788, 0xFFFFFACE, 0x000020A6, 0x00001355, 0xFFFFF0FB, 0xFFFFF5C3, 0xFFFFFFA2, 0xFFFFFB44, 
    0xFFFFF276, 0xFFFFEB3F, 0xFFFFE1E8, 0xFFFFF73E, 0x000004AD, 0x00000E62, 0x00002D0E, 0x00000DE8, 
    0x00001C66, 0xFFFFE807, 0xFFFFEA04, 0xFFFFE0F4, 0x000010F2, 0xFFFFFCA2, 0xFFFFE02F, 0xFFFFDDD2, 
    0x00000E28, 0xFFFFE95B, 0xFFFFFA0A, 0x00003E89, 0x000025A9, 0x00000819, 0xFFFFF933, 0x00001157, 
    0x0000228A, 0x00000AA7, 0x00000595, 0xFFFFF0ED, 0xFFFFF0AE, 0x00001DD2, 0x00001D8A, 0x00000C65, 
    0x0000024D, 0xFFFFF6B7, 0x00000FF2, 0x0000129B, 0x00003452, 0x000009FE, 0x000029EF, 0xFFFFF096, 
    0xFFFFDDEF, 0x00001183, 0xFFFFF33A, 0x00000285, 0xFFFFF04C, 0x00002B06, 0xFFFFE66A, 0xFFFFD82E, 
    0x00000496, 0xFFFFCB8B, 0xFFFFFF6C, 0xFFFFE1EA, 0xFFFFF3D6, 0xFFFFF998, 0xFFFFF138, 0x00000CC9, 
    0x00001D88, 0x000020B6, 0x00000BE6, 0xFFFFF9B0, 0xFFFFF80D, 0xFFFFFB8A, 0xFFFFE319, 0x00000A71, 
    0xFFFFF8F6, 0xFFFFD33B, 0xFFFFFFAF, 0xFFFFEC05, 0xFFFFF39D, 0x00002DCD, 0x0000080D, 0x000031D5, 
    0x00000CF7, 0x000018AA, 0xFFFFF9AF, 0x0000183F, 0x000026D5, 0x00001D1D, 0x00002616, 0x0000351C, 
    0x00000FF9, 0x0000092E, 0x000011CC, 0x000024D1, 0xFFFFE8A1, 0x00000322, 0x000025ED, 0x00001BF9, 
    0xFFFFFC1E, 0xFFFFD638, 0x0000058B, 0x00000BB6, 0xFFFFD8F3, 0xFFFFF9CE, 0xFFFFECC4, 0xFFFFED19, 
    0x00000404, 0xFFFFE558, 0xFFFFE408, 0x00000BD9, 0xFFFFED97, 0x00001684, 0xFFFFF5CF, 0x00001C66, 
    0x00000C10, 0xFFFFF4E9, 0x00003043, 0x00002CE3, 0x00000E1A, 0x000005A6, 0x00000BB6, 0x000036A9, 
    0x000024F7, 0xFFFFFD45, 0xFFFFFF9C, 0xFFFFE6D5, 0xFFFFFD9C, 0xFFFFE15F, 0xFFFFE935, 0xFFFFEDAB, 
    0x00001BD2, 0xFFFFEE40, 0xFFFFDDB4, 0xFFFFE4D9, 0xFFFFEB42, 0x00001483, 0x00001D79, 0x000021FA, 
    0x00002BB9, 0xFFFFED58, 0xFFFFE0C9, 0x00001C81, 0x00001DC0, 0x00002074, 0xFFFFFCF6, 0x0000146D, 
    0x0000131F, 0xFFFFF812, 0x00002221, 0x00001914, 0xFFFFF27C, 0x00000DB3, 0x0000153B, 0x00000F9E, 
    0xFFFFF37A, 0xFFFFEA6E, 0xFFFFDE1E, 0xFFFFE609, 0xFFFFDBAE, 0x000004A3, 0x000009DF, 0x0000038C, 
    0xFFFFE67E, 0xFFFFCF43, 0xFFFFCE84, 0x00001787, 0xFFFFEC4D, 0xFFFFEE48, 0xFFFFDF05, 0xFFFFD663, 
    0x000012EC, 0xFFFFE226, 0xFFFFE50C, 0x00001C24, 0xFFFFB7F6, 0xFFFFDE62, 0xFFFFE6DA, 0xFFFFE9A8, 
    0xFFFFEF64, 0x0000067A, 0xFFFFD529, 0xFFFFEDFC, 0xFFFFED93, 0xFFFFFDC7, 0x000024DC, 0x00001DD2, 
    0x00003199, 0xFFFFF38C, 0xFFFFDD95, 0xFFFFF143, 0x0000008E, 0xFFFFE3A7, 0xFFFFF349, 0xFFFFF79C, 
    0xFFFFEDFD, 0x0000311A, 0x000024EB, 0xFFFFED4D, 0x00001476, 0xFFFFB3EF, 0x0000043F, 0xFFFFE868, 
    0xFFFFF59E, 0x00000719, 0xFFFFE955, 0x00000905, 0x00001329, 0x00001146, 0x0000192D, 0xFFFFC4F4, 
    0x00000B20, 0xFFFFF2E2, 0x00000284, 0xFFFFF9BD, 0xFFFFE9E2, 0x00000BB2, 0xFFFFF8FE, 0x00000471, 
    0xFFFFF02C, 0x000039A6, 0x00003255, 0x0000030F, 0xFFFFF4BE, 0x00001F13, 0x00002E94, 0xFFFFEDF1, 
    0x00002225, 0x00001053, 0xFFFFE625, 0x00001370, 0x000022AA, 0x000014E4, 0xFFFFE59B, 0xFFFFDB19, 
    0xFFFFE71C, 0x00000CE3, 0x000014CA, 0x00000B15, 0xFFFFFB9F, 0x00000D4C, 0x000014A7, 0x0000020E, 
    0xFFFFDA80, 0xFFFFE564, 0x000010EB, 0x00001E3C, 0x00000C56, 0x00000D8E, 0xFFFFF7C8, 0xFFFFFEE8, 
    0x000021DA, 0x00002073, 0x000006AE, 0xFFFFFC4E, 0xFFFFDEF9, 0xFFFFDC42, 0x00001C8B, 0x00003133, 
    0x00000583, 0xFFFFED07, 0xFFFFED12, 0x00001691, 0x0000132A, 0xFFFFF7CB, 0x00002839, 0xFFFFF7A1, 
    0xFFFFF48F, 0x00002B5D, 0x00001339, 0x00000E84, 0xFFFFDB77, 0xFFFFC459, 0xFFFFC25E, 0xFFFFF2D6, 
    0xFFFFEFE2, 0xFFFFE766, 0xFFFFE0D4, 0xFFFFDF39, 0xFFFFEA8F, 0xFFFFF174, 0x0000158B, 0xFFFFFD46, 
    0x000010D5, 0x00000F5A, 0xFFFFFF24, 0xFFFFFCA2, 0x00000AAF, 0x0000112C, 0xFFFFEEA4, 0x00003FA9, 
    0x000042A5, 0x00004CD6, 0x000022DE, 0x00004920, 0x00001CE8, 0x000003F2, 0x00002F9F, 0x0000186F, 
    0x00002DAB, 0x00000417, 0x0000027E, 0x00000633, 0xFFFFFD20, 0xFFFFE632, 0x0000279D, 0xFFFFFE30, 
    0x00002BCA, 0x00000E76, 0x000025FA, 0xFFFFE4AA, 0x00000A68, 0x000004B5, 0xFFFFEB99, 0x00000833, 
    0x00000E4C, 0x000045F5, 0x00003D29, 0x00002864, 0x00002866, 0x000009E1, 0x0000100A, 0x0000032D, 
    0x00000366, 0x00001D38, 0x000025FC, 0x00000953, 0x00002A49, 0x00001ACB, 0xFFFFF857, 0x000037A3, 
    0x0000265B, 0xFFFFF658, 0x000017CE, 0x000014CA, 0x00002691, 0x00001B84, 0x00002A76, 0x000038F2, 
    0x00002ED9, 0x00000754, 0xFFFFFC09, 0x000000E5, 0xFFFFF2CA, 0x00000016, 0x00001E51, 0x000013D1, 
    0x00002404, 0x0000231A, 0x000001C1, 0xFFFFEF52, 0xFFFFFAF3, 0x00000DB1, 0xFFFFED5E, 0x0000066F, 
    0x000009B0, 0x00002858, 0x00000926, 0x00001946, 0x00002782, 0x0000164B, 0x0000032D, 0xFFFFEE22, 
    0xFFFFF6EA, 0xFFFFE7CD, 0xFFFFD8DE, 0xFFFFF5AC, 0xFFFFEFA0, 0x00001ED6, 0xFFFFFCF2, 0x00000D43, 
    0x00001124, 0x00001644, 0xFFFFFEC8, 0x00002FF2, 0x00000041, 0x0000091D, 0xFFFFEEB1, 0xFFFFE9A3, 
    0xFFFFFE7B, 0x00002054, 0x0000206B, 0xFFFFE94C, 0x000016CD, 0xFFFFF461, 0xFFFFD83F, 0xFFFFCD0A, 
    0xFFFFE1DD, 0x00000FAB, 0xFFFFEB13, 0xFFFFF13E, 0x000007D5, 0xFFFFFB57, 0x00000508, 0xFFFFF073, 
    0x000000E3, 0x00000D04, 0xFFFFE38B, 0xFFFFF373, 0xFFFFFCF5, 0x00000A76, 0xFFFFF72F, 0xFFFFEDC1, 
    0xFFFFFED1, 0xFFFFFD09, 0xFFFFFB04, 0xFFFFFAB8, 0x00000401, 0x00002882, 0x000001B7, 0xFFFFF8B6, 
    0xFFFFD453, 0xFFFFCBED, 0xFFFFEFBD, 0xFFFFF2C1, 0x000027E2, 0x00003528, 0x00001C0B, 0x000000E5, 
    0x0000216D, 0xFFFFF536, 0xFFFFE74A, 0xFFFFEECE, 0xFFFFF749, 0xFFFFDE33, 0xFFFFD68E, 0xFFFFEA61, 
    0xFFFFEFA2, 0xFFFFD5E6, 0xFFFFCBC3, 0x00002E95, 0x00001EE2, 0x00003168, 0x0000348D, 0x000018D1, 
    0xFFFFDCBF, 0x000009A5, 0xFFFFEC50, 0xFFFFE424, 0xFFFFE22A, 0xFFFFF4F3, 0x0000019F, 0xFFFFE9A8, 
    0xFFFFFC15, 0xFFFFF968, 0xFFFFFC7D, 0x00000D69, 0xFFFFF184, 0xFFFFFDE2, 0x0000143B, 0xFFFFDCD6, 
    0xFFFFF1C2, 0xFFFFEBD9, 0x00000978, 0x000021A8, 0x0000078A, 0xFFFFF418, 0x0000089E, 0x0000270A, 
    0xFFFFFA3B, 0x000018BB, 0xFFFFE795, 0x00000107, 0xFFFFF93D, 0x0000184A, 0x0000249D, 0x0000177B, 
    0x0000072C, 0x00000CC3, 0x00001A14, 0xFFFFEAF6, 0xFFFFF049, 0x0000031C, 0xFFFFF6B7, 0x00001664, 
    0x00004286, 0x00002ACF, 0x00002604, 0x00001C72, 0x000007B6, 0x0000006F, 0x000006A9, 0x00001AE9, 
    0x000006DE, 0xFFFFE8AD, 0x00001CF7, 0xFFFFF8D6, 0xFFFFF518, 0x00002779, 0xFFFFF386, 0x00003554, 
    0x00002C7F, 0x00000717, 0x000019D6, 0xFFFFFBFD, 0xFFFFEF93, 0xFFFFF2D5, 0xFFFFF406, 0xFFFFF8AB, 
    0xFFFFC98D, 0xFFFFD7CB, 0x0000035E, 0xFFFFF365, 0xFFFFD30A, 0xFFFFEBFC, 0xFFFFF6BA, 0x0000124F, 
    0xFFFFE7A7, 0xFFFFED58, 0x00000A7A, 0x0000051E, 0xFFFFF217, 0x00000589, 0x0000114C, 0x00000E99, 
    0xFFFFE3FF, 0x0000041C, 0xFFFFEB1A, 0xFFFFD541, 0xFFFFFEF1, 0x00001DED, 0x00002B7B, 0x0000074C, 
    0x000002E1, 0xFFFFE9C8, 0xFFFFE043, 0xFFFFEBD4, 0x000022CC, 0xFFFFEABC, 0xFFFFFB71, 0x00000BC3, 
    0x00001AED, 0xFFFFF8C8, 0xFFFFF2ED, 0x000028D5, 0x000007A6, 0x000000FC, 0x00001010, 0xFFFFF73F, 
    0xFFFFF8C2, 0x00003715, 0x0000169F, 0xFFFFF5A5, 0x00000E1E, 0x000028D7, 0x000028C1, 0x00001779, 
    0x00001597, 0x00003072, 0x00001C5A, 0x00003B1B, 0x0000078D, 0xFFFFF6E0, 0x00000AD0, 0x00001CB2, 
    0xFFFFEE54, 0x00001639, 0x00001526, 0xFFFFFD7B, 0x000019E6, 0x00000DAC, 0xFFFFFFF7, 0x00002D70, 
    0x00001408, 0x00000878, 0xFFFFD6B7, 0xFFFFB358, 0xFFFFFBE3, 0xFFFFF5A9, 0xFFFFEEAF, 0x000003C9, 
    0x00002779, 0x00001D58, 0xFFFFF77B, 0x00002DF6, 0xFFFFDD8B, 0xFFFFF6A7, 0xFFFFDDD7, 0xFFFFE0E3, 
    0xFFFFFEFE, 0xFFFFF4FB, 0x0000175F, 0x000011CE, 0xFFFFF4CB, 0xFFFFD7ED, 0x00001F0F, 0x000022CA, 
    0x000005B8, 0x000007B0, 0x00002512, 0x00000479, 0xFFFFF1A1, 0xFFFFFB83, 0x000010D5, 0x00001F9B, 
    0xFFFFFD04, 0x000021D5, 0x000013DF, 0x0000222D, 0xFFFFDD20, 0x00002C99, 0x000020A7, 0x00001A72, 
    0x00003007, 0x00000EB6, 0x00000983, 0x00000FAC, 0xFFFFFF9C, 0xFFFFE9CF, 0xFFFFE8EC, 0x00000279, 
    0xFFFFDA07, 0xFFFFD4BC, 0xFFFFF118, 0xFFFFFD53, 0x00000843, 0x0000157A, 0xFFFFF372, 0x0000077C, 
    0x000015DE, 0x00003810, 0x00001F9F, 0xFFFFF1AC, 0xFFFFE7F2, 0xFFFFD337, 0xFFFFF5B8, 0xFFFFEB6D, 
    0xFFFFD678, 0xFFFFDCC7, 0xFFFFD200, 0xFFFFC508, 0x00000821, 0x00001CCA, 0x00002508, 0x000016E5, 
    0x00000ED9, 0x00001CC9, 0xFFFFEEB7, 0x00001898, 0xFFFFE5D9, 0xFFFFE89A, 0x00000064, 0xFFFFF537, 
    0xFFFFCF28, 0xFFFFD453, 0xFFFFDBF8, 0x00000975, 0x0000112A, 0x0000286A, 0x0000232F, 0xFFFFEA2D, 
    0x00000200, 0xFFFFFC78, 0xFFFFD046, 0xFFFFE8F1, 0xFFFFDA69, 0xFFFFF916, 0x00000815, 0x00000BC7, 
    0x000008A2, 0xFFFFD4B7, 0x000027BD, 0x00000094, 0x0000247F, 0x00001037, 0x00003483, 0x00002B89, 
    0x00002C15, 0xFFFFFEE0, 0xFFFFFDC4, 0x00001691, 0xFFFFDE91, 0xFFFFEAB6, 0xFFFFD425, 0x00001BBB, 
    0xFFFFFECA, 0xFFFFDC2E, 0xFFFFD938, 0xFFFFD3D7, 0xFFFFD55D, 0x00001C42, 0x0000166F, 0x00000CBC, 
    0x00001DD2, 0xFFFFE623, 0x00001BD9, 0xFFFFE3B7, 0x000014DF, 0xFFFFE333, 0xFFFFFAF1, 0xFFFFED7A, 
    0xFFFFEFB5, 0x000008E6, 0xFFFFDCED, 0x00001154, 0xFFFFECDC, 0xFFFFF6CE, 0x0000085B, 0x000013A8, 
    0x00002609, 0xFFFFF648, 0xFFFFFB6C, 0x0000156A, 0x00000C03, 0x00000930, 0x00000228, 0x00002474, 
    0x00002401, 0xFFFFE98B, 0x00000A13, 0x00002932, 0xFFFFFBF4, 0xFFFFF858, 0x00001621, 0x000003B4, 
    0xFFFFE1BA, 0xFFFFEFAD, 0xFFFFC0EF, 0xFFFFC5BC, 0xFFFFC27C, 0xFFFFE09D, 0xFFFFF94E, 0x000026A1, 
    0x00000720, 0x00000F61, 0x000015E1, 0x000006EB, 0x00001A8F, 0x00002C87, 0x00004345, 0xFFFFDC69, 
    0xFFFFC499, 0xFFFFCCC9, 0xFFFFD559, 0xFFFFE514, 0xFFFFEC90, 0x00000E40, 0xFFFFD292, 0xFFFFF4DC, 
    0xFFFFEBE2, 0xFFFFEF26, 0x000029C0, 0x00001A8B, 0x00002815, 0xFFFFE268, 0x00000D54, 0x00000E89, 
    0x00002C82, 0x00001C6C, 0xFFFFFB8B, 0x000009B7, 0x000022B5, 0x0000284A, 0x00002260, 0xFFFFF57F, 
    0x00002A9D, 0xFFFFF58C, 0x00002B3E, 0x00003327, 0x000009DE, 0xFFFFEB61, 0x000001EF, 0x00000977, 
    0x000010D4, 0x00001157, 0x0000085D, 0x00000EF3, 0x00000BDF, 0x00001F5E, 0x00001F7A, 0xFFFFEC6F, 
    0xFFFFBCA0, 0xFFFFC9EA, 0xFFFFD39A, 0xFFFFEADF, 0xFFFFFB6D, 0x000008BF, 0xFFFFE1D9, 0xFFFFDFC2, 
    0xFFFFDFBC, 0x00001122, 0xFFFFE0BD, 0x00000E0A, 0x0000141B, 0xFFFFF34F, 0xFFFFF942, 0xFFFFD45E, 
    0xFFFFDDAB, 0x000004AD, 0x00000000, 0xFFFFE2E2, 0x00000A60, 0xFFFFC6DB, 0xFFFFE314, 0x00001906, 
    0x000009BB, 0xFFFFF544, 0xFFFFF10E, 0x00000AB8, 0x00001845, 0xFFFFF099, 0xFFFFC2A9, 0x00000262, 
    0x00000D4E, 0xFFFFDE5C, 0x00001709, 0xFFFFE707, 0x00001A5E, 0x00000104, 0x0000015B, 0xFFFFF4F5, 
    0x000004F7, 0x000004E4, 0x00002926, 0x00001E99, 0xFFFFE44A, 0xFFFFF876, 0x000008EB, 0xFFFFE207, 
    0x00000BDD, 0xFFFFFB7A, 0x00001DA2, 0x0000050A, 0x0000028A, 0x00000C63, 0xFFFFE413, 0x000026FC, 
    0x00002C33, 0x00000EF6, 0xFFFFFAD9, 0x00002314, 0xFFFFF7D5, 0xFFFFFFC1, 0x00002E9A, 0xFFFFFBE9, 
    0xFFFFF577, 0xFFFFD396, 0x0000027F, 0xFFFFFD05, 0xFFFFF57B, 0x0000039A, 0x00001C19, 0x00002817, 
    0x0000148E, 0x00000157, 0xFFFFE120, 0x00000C32, 0xFFFFDE5D, 0xFFFFCEAE, 0xFFFFC3B2, 0x000024FC, 
    0xFFFFF39B, 0x00000A65, 0x0000082D, 0x0000076C, 0x00000BCD, 0xFFFFFB12, 0xFFFFF39B, 0xFFFFD808, 
    0xFFFFC3B7, 0xFFFFFCAD, 0xFFFFE8FD, 0x000018C6, 0xFFFFE70C, 0xFFFFCFEB, 0x000002CD, 0xFFFFF3FD, 
    0xFFFFF4D7, 0x00000AB7, 0x00002773, 0xFFFFFF2F, 0x000005D3, 0x000018A3, 0xFFFFDFE4, 0xFFFFE511, 
    0xFFFFEF2F, 0xFFFFF4D4, 0xFFFFEAF7, 0x000007E0, 0x000004ED, 0x00001754, 0xFFFFE13D, 0x000023EE, 
    0x00001886, 0x00001C39, 0xFFFFFF9B, 0xFFFFE175, 0x000001B8, 0xFFFFEBA0, 0xFFFFE18C, 0x00002400, 
    0x0000142A, 0xFFFFFB06, 0xFFFFDE6D, 0xFFFFE2A9, 0x00001CF9, 0x00001930, 0x00003AE0, 0x00003005, 
    0xFFFFE65C, 0x00000C0A, 0x000022D2, 0x00000E88, 0xFFFFE3F6, 0xFFFFFAAF, 0x0000070C, 0x00002213, 
    0x00001B2A, 0xFFFFFB61, 0x0000297A, 0x000004DD, 0xFFFFF54F, 0xFFFFD7F6, 0xFFFFF15D, 0xFFFFDE78, 
    0x00000A29, 0x00001353, 0xFFFFD8B8, 0xFFFFF7D2, 0xFFFFFA0B, 0xFFFFF8BC, 0xFFFFDB47, 0xFFFFF0A3, 
    0x00000881, 0xFFFFF320, 0xFFFFF7E5, 0x00000056, 0xFFFFE5CA, 0xFFFFDE4F, 0xFFFFFC1A, 0x00000F22, 
    0x0000208D, 0xFFFFFE46, 0x00001E3D, 0xFFFFD68F, 0x000004F5, 0xFFFFF70F, 0x0000016F, 0xFFFFE81B, 
    0xFFFFF649, 0x00000AF0, 0x0000123F, 0x00000EF3, 0x00002A73, 0x000027C4, 0xFFFFDA93, 0xFFFFD92B, 
    0x00001CA3, 0x0000009F, 0xFFFFE718, 0x00000555, 0x00003608, 0x00002F27, 0x00001440, 0xFFFFDD1D, 
    0xFFFFFC44, 0x00000282, 0x000026FD, 0xFFFFFB96, 0xFFFFDB69, 0x00001E51, 0xFFFFFCAF, 0x00002689, 
    0x00001519, 0x00000FD0, 0xFFFFE16D, 0xFFFFEAA8, 0x00001EBD, 0x000024B5, 0x00002F5D, 0xFFFFDE0C, 
    0xFFFFF32F, 0x00000C98, 0x00003FF4, 0x00003CEB, 0xFFFFDDAB, 0xFFFFE24D, 0xFFFFDEEC, 0xFFFFF630, 
    0x0000022B, 0x00002BA3, 0x0000132E, 0xFFFFCAE3, 0xFFFFF238, 0xFFFFC90F, 0x00002677, 0x00002894, 
    0xFFFFF352, 0xFFFFF721, 0xFFFFEBBA, 0x000000BC, 0xFFFFEE5D, 0x00002B94, 0xFFFFEE1A, 0x000008B5, 
    0x000023D3, 0xFFFFF135, 0xFFFFFE8D, 0x00000BAB, 0x00001EA7, 0xFFFFCD7F, 0xFFFFD7CB, 0x0000200A, 
    0x00001330, 0xFFFFFE33, 0xFFFFF4F0, 0x00002039, 0x000021C0, 0x00001AAA, 0x00003519, 0x00001C13, 
    0xFFFFE7D4, 0x00002DF5, 0x00001313, 0x000030D2, 0xFFFFFCA7, 0xFFFFF018, 0x00000263, 0xFFFFFB98, 
    0x00000F1B, 0x00001549, 0x00002EB9, 0xFFFFF560, 0xFFFFF28C, 0x00001EA3, 0xFFFFF433, 0x000018E8, 
    0xFFFFFAFC, 0xFFFFE6AA, 0x00003450, 0xFFFFEE60, 0xFFFFE000, 0xFFFFEB8E, 0x000013D1, 0x000011F6, 
    0x00001EAC, 0xFFFFEF9E, 0xFFFFE2F5, 0xFFFFE7C9, 0xFFFFD2ED, 0xFFFFE5F6, 0xFFFFEAB8, 0xFFFFE717, 
    0xFFFFD541, 0x00000A2E, 0xFFFFCF16, 0xFFFFF2ED, 0x00002800, 0x00003325, 0x000003E5, 0x000001EE, 
    0xFFFFFD8C, 0x000004FF, 0xFFFFFD5E, 0xFFFFD3F4, 0x00000C9A, 0x00002062, 0x00001995, 0xFFFFF5D4, 
    0x000013E0, 0xFFFFFF38, 0xFFFFD688, 0xFFFFFE39, 0x00003060, 0x00001FFD, 0x00001306, 0xFFFFF49F, 
    0x0000073B, 0xFFFFFCB9, 0x000009B4, 0xFFFFE22A, 0xFFFFE8F1, 0xFFFFE830, 0x00000E09, 0xFFFFF21C, 
    0xFFFFF59E, 0xFFFFD795, 0xFFFFE5E8, 0xFFFFE83E, 0x00000B01, 0xFFFFDC80, 0xFFFFCCF0, 0xFFFFE3F2, 
    0xFFFFEBD8, 0xFFFFD5DE, 0x00000226, 0x00002522, 0xFFFFFE34, 0x000019E1, 0x00002857, 0x000031F7, 
    0x00003396, 0x00002069, 0x00000672, 0x00001480, 0x00001332, 0xFFFFFB98, 0xFFFFEF87, 0x00002127, 
    0x00001244, 0x000017EC, 0x000003D2, 0x00001B15, 0x0000283F, 0x00000271, 0xFFFFFD2D, 0x00000EF9, 
    0xFFFFE86B, 0xFFFFE930, 0xFFFFD94B, 0xFFFFFF28, 0x00001387, 0x000019F6, 0x00001607, 0xFFFFE751, 
    0x0000118A, 0xFFFFF3D7, 0xFFFFDF9E, 0x00001183, 0xFFFFD952, 0x00001AE4, 0x000011BC, 0x000009DE, 
    0x00000B8F, 0xFFFFF224, 0xFFFFDEE8, 0xFFFFF745, 0xFFFFD23D, 0xFFFFFB4F, 0xFFFFDB2B, 0xFFFFE6EB, 
    0xFFFFF994, 0xFFFFECFF, 0xFFFFF095, 0x000016A4, 0x000004D0, 0xFFFFDD13, 0x000002A9, 0xFFFFF59F, 
    0xFFFFF83F, 0x00001963, 0x00000C74, 0x0000260A, 0xFFFFE4A1, 0xFFFFE808, 0xFFFFC7F4, 0xFFFFC195, 
    0xFFFFF7C1, 0xFFFFE865, 0xFFFFF15E, 0x000014E2, 0x000014EE, 0x000004AF, 0x00002600, 0x0000177E, 
    0xFFFFDFF1, 0x00001253, 0xFFFFE466, 0x000004D3, 0x00001113, 0xFFFFF09E, 0x00000FC0, 0xFFFFCD89, 
    0xFFFFD39E, 0xFFFFED49, 0xFFFFF365, 0x000012C0, 0x0000267A, 0x000006A7, 0xFFFFEAF0, 0x0000110A, 
    0x00001835, 0xFFFFDEF6, 0x000004D0, 0x00000D9D, 0xFFFFE590, 0xFFFFFB08, 0x00000FC6, 0xFFFFE2D4, 
    0xFFFFDF42, 0x0000138D, 0x000002DA, 0x000000C7, 0xFFFFE7C0, 0x00000F45, 0xFFFFF1AB, 0xFFFFDF88, 
    0xFFFFE83A, 0xFFFFF7BC, 0xFFFFE17B, 0x00001CD1, 0xFFFFEFBC, 0x00002A43, 0x0000356A, 0x000031E2, 
    0xFFFFC5DF, 0xFFFFE944, 0xFFFFF0B7, 0xFFFFF5C7, 0xFFFFD497, 0x00002462, 0x000018FB, 0x00002B82, 
    0x0000024E, 0x00001E3D, 0x00000EA1, 0x00001E96, 0xFFFFFAF2, 0x000000AE, 0x00001D33, 0xFFFFF6EB, 
    0xFFFFF9C0, 0x00001254, 0x00000DD0, 0xFFFFDE19, 0x00001509, 0x0000304C, 0x000019F8, 0xFFFFFEEA, 
    0x000009A3, 0x0000055E, 0xFFFFEE8A, 0x000000AD, 0x00000091, 0xFFFFDC26, 0xFFFFF60B, 0x00002087, 
    0x00001A93, 0xFFFFE5A6, 0xFFFFD71E, 0x000024A0, 0xFFFFE395, 0xFFFFEDB4, 0x0000155B, 0x0000116A, 
    0xFFFFC031, 0xFFFFFA3B, 0xFFFFD7C6, 0xFFFFED35, 0xFFFFC6F7, 0x0000056A, 0x00003089, 0x00000DD3, 
    0x00002AD5, 0x00000D82, 0x00000E60, 0x000010A1, 0x00002832, 0x0000073E, 0xFFFFF13B, 0xFFFFEA02, 
    0xFFFFF196, 0xFFFFF37D, 0xFFFFF141, 0xFFFFE946, 0xFFFFEAB3, 0xFFFFE0AC, 0x000001BD, 0xFFFFFE88, 
    0xFFFFF284, 0x00000BAF, 0xFFFFF7B1, 0x00001D1D, 0x00002532, 0x00001617, 0xFFFFCA84, 0xFFFFDAE4, 
    0x000000F8, 0x00000668, 0xFFFFFB80, 0xFFFFDE49, 0xFFFFD6A6, 0xFFFFCBD1, 0xFFFFD226, 0x00000E92, 
    0xFFFFFBCC, 0x0000188C, 0x000007D2, 0x00002B33, 0x0000118A, 0x0000126C, 0x00003C68, 0x00002528, 
    0x00002B55, 0x0000449A, 0x00003E2D, 0x00001B03, 0xFFFFF4A4, 0xFFFFE379, 0xFFFFFC11, 0xFFFFE818, 
    0xFFFFDF82, 0xFFFFE1A4, 0x00001A59, 0xFFFFE08A, 0x000010E4, 0x000022C2, 0xFFFFFC0F, 0xFFFFDC88, 
    0x000003AE, 0x00001D66, 0x00001BFD, 0x00001109, 0x00002221, 0xFFFFE288, 0x00001470, 0xFFFFD8CA, 
    0xFFFFCCE3, 0xFFFFDB9D, 0xFFFFDD27, 0xFFFFF740, 0xFFFFF7A8, 0xFFFFDE91, 0xFFFFF00B, 0x000002DA, 
    0xFFFFED5F, 0xFFFFEC22, 0x00001184, 0xFFFFF126, 0xFFFFF176, 0x00000AC5, 0xFFFFF909, 0x00001CB8, 
    0x000020AE, 0x00000E73, 0xFFFFFA59, 0xFFFFFF9C, 0xFFFFDFFA, 0xFFFFC9E1, 0xFFFFDA20, 0xFFFFED01, 
    0x0000008D, 0x000015C2, 0x00000F62, 0x000000AB, 0xFFFFF68F, 0x000013C1, 0x0000007A, 0xFFFFE815, 
    0xFFFFF081, 0xFFFFF214, 0x00001373, 0x00000A22, 0xFFFFF53B, 0x000030E9, 0xFFFFD79D, 0x000006BE, 
    0xFFFFFB52, 0x0000152E, 0xFFFFF9A8, 0xFFFFDE33, 0x000021B4, 0x00001DF3, 0xFFFFF3DD, 0x000009AF, 
    0x000000E3, 0xFFFFF178, 0x000022F9, 0x000008AA, 0x00000D5E, 0xFFFFED2C, 0x00001315, 0x000019AA, 
    0x000015C7, 0xFFFFF2C3, 0x00000EA4, 0xFFFFE944, 0xFFFFEA13, 0xFFFFE282, 0xFFFFFCEB, 0x00000B42, 
    0x00000604, 0x000005BD, 0x0000018C, 0xFFFFFB8F, 0x00000EEA, 0xFFFFF97F, 0x000023BA, 0x000016B0, 
    0xFFFFED8C, 0xFFFFF0CB, 0x000002FE, 0x00000434, 0x000006CD, 0xFFFFD6BE, 0xFFFFFD2B, 0x0000271F, 
    0xFFFFF1F9, 0x00002134, 0xFFFFE3A1, 0xFFFFEA7C, 0xFFFFCD03, 0xFFFFDA6D, 0xFFFFCF86, 0xFFFFFAF8, 
    0x000028CA, 0x00002B5D, 0x00001612, 0xFFFFEC45, 0xFFFFE766, 0xFFFFECB6, 0x00001D88, 0x0000177D, 
    0xFFFFE062, 0xFFFFDE83, 0x000019DD, 0xFFFFDB75, 0x000026E3, 0x00002EC6, 0xFFFFDCC7, 0x00000806, 
    0xFFFFFBF6, 0xFFFFEE6F, 0x000009CC, 0xFFFFFDF1, 0x000033A9, 0x00002101, 0x00002601, 0x00002A5E, 
    0x0000045C, 0x000001EF, 0x0000020B, 0x00000AB3, 0xFFFFF517, 0xFFFFF0F4, 0x00001299, 0xFFFFFDD7, 
    0x000019ED, 0x00003809, 0xFFFFF71C, 0xFFFFD441, 0xFFFFB9CF, 0xFFFFF444, 0x00002ED5, 0x00002B4F, 
    0xFFFFDBA6, 0xFFFFC6F8, 0xFFFFDEC0, 0x000001EE, 0xFFFFD4A8, 0x0000286E, 0x00000E7A, 0xFFFFE4EC, 
    0xFFFFE693, 0x0000004D, 0x0000569C, 0x000034D5, 0x00000AB1, 0x000010F5, 0xFFFFF77B, 0xFFFFDD3B, 
    0xFFFFE346, 0xFFFFE0B2, 0xFFFFE9B7, 0xFFFFF294, 0x00001697, 0x000021FD, 0xFFFFE352, 0x00001B7A, 
    0xFFFFFF43, 0xFFFFFDA8, 0xFFFFFD84, 0x00000716, 0x00001827, 0xFFFFEC3B, 0x00000E4D, 0x000009AE, 
    0xFFFFEB2C, 0xFFFFEA90, 0xFFFFE983, 0xFFFFD75C, 0xFFFFD5FF, 0x000004C5, 0xFFFFFE4C, 0xFFFFFF48, 
    0xFFFFF24A, 0x0000025A, 0x000017C3, 0xFFFFDCC5, 0x000007BC, 0x00000B69, 0x00000C23, 0x000008EB, 
    0xFFFFEA4A, 0xFFFFFA11, 0x0000019D, 0x00000C67, 0xFFFFF21B, 0x00001CA1, 0x0000247F, 0xFFFFD6D6, 
    0xFFFFC8CD, 0xFFFFF802, 0xFFFFE1B4, 0xFFFFF876, 0x00002E66, 0x000004F4, 0x000021B8, 0xFFFFF722, 
    0x00001F0C, 0x000004F9, 0xFFFFEF3F, 0xFFFFF307, 0xFFFFFC86, 0xFFFFED85, 0x000002F3, 0xFFFFEC0E, 
    0xFFFFCA0C, 0xFFFFEC67, 0xFFFFD944, 0x000013D1, 0xFFFFF4DB, 0x00001C94, 0x00000675, 0xFFFFEB13, 
    0xFFFFE28F, 0xFFFFCF5A, 0xFFFFD81F, 0xFFFFC108, 0xFFFFDC91, 0xFFFFF8DF, 0x00001F47, 0x00002879, 
    0xFFFFF8D4, 0x00002180, 0x00001F74, 0xFFFFF1BD, 0xFFFFEC79, 0x00001BE0, 0xFFFFFE25, 0x00004481, 
    0x00001D03, 0x00001C9F, 0xFFFFF4C1, 0x000003E7, 0x00000E74, 0xFFFFF682, 0x00001612, 0x00001CB2, 
    0xFFFFE787, 0x0000040C, 0x00000FAC, 0x000013A8, 0x00002A82, 0x00002A1A, 0xFFFFC608, 0xFFFFF02A, 
    0x0000125A, 0xFFFFC757, 0xFFFFD1B7, 0xFFFFE3B5, 0xFFFFF578, 0x000013DA, 0xFFFFC6FE, 0xFFFFD54A, 
    0x000003FC, 0xFFFFF74A, 0xFFFFEC57, 0x000014C1, 0xFFFFFD60, 0xFFFFE652, 0xFFFFE976, 0xFFFFCF86, 
    0xFFFFCC0B, 0xFFFFED7C, 0x00002962, 0x00001EB6, 0x00000717, 0xFFFFFD18, 0xFFFFFFC5, 0x00000069, 
    0x0000213C, 0x00001117, 0xFFFFE897, 0x00000153, 0x00002C45, 0x00003415, 0x000018A5, 0x0000270F, 
    0x00000C95, 0x000020B3, 0xFFFFF7D8, 0xFFFFDF0C, 0xFFFFF6A6, 0x00000AB0, 0x000019DA, 0xFFFFF9C2, 
    0xFFFFF9C4, 0xFFFFE515, 0xFFFFE2A1, 0x00003342, 0x0000271F, 0x00001C60, 0x00002D51, 0xFFFFF43B, 
    0xFFFFF473, 0xFFFFF427, 0x0000072F, 0x000037E9, 0x00000518, 0x000016B5, 0x000015AB, 0x0000019D, 
    0xFFFFF94D, 0xFFFFF89E, 0xFFFFDEA4, 0x00002A71, 0xFFFFFFAB, 0x0000308B, 0x000035B7, 0xFFFFF29E, 
    0xFFFFE685, 0xFFFFE815, 0x00000732, 0x00001F74, 0x00001D23, 0x00002BD1, 0x00000D57, 0x00000F53, 
    0x00000EFF, 0xFFFFDF73, 0x0000058D, 0x00000955, 0x000003A7, 0xFFFFF3B9, 0x0000003A, 0xFFFFF38D, 
    0xFFFFF809, 0x00001BB2, 0x00001870, 0xFFFFC7C0, 0xFFFFCF5A, 0xFFFFD1A4, 0xFFFFF687, 0xFFFFF04B, 
    0xFFFFCCBF, 0xFFFFE42E, 0xFFFFF7B1, 0xFFFFDB90, 0xFFFFF084, 0xFFFFD93F, 0x00000952, 0x0000322F, 
    0xFFFFFFF3, 0xFFFFEC53, 0x00001E8F, 0x000016D4, 0x000003A8, 0x000014DE, 0x00001A6C, 0x0000133C, 
    0xFFFFDD37, 0x00001D36, 0x00001562, 0xFFFFE986, 0x000023C1, 0x00000BB4, 0xFFFFF596, 0x000004CC, 
    0x00002191, 0x000003A7, 0xFFFFF80F, 0x0000032F, 0x00000027, 0xFFFFD178, 0xFFFFF2C0, 0x000021EF, 
    0x000022BC, 0x000029C3, 0xFFFFF5F6, 0x000000D4, 0xFFFFEF0E, 0x00001AA8, 0x00002698, 0x00001909, 
    0xFFFFE7A5, 0xFFFFE950, 0xFFFFE9E4, 0xFFFFF5A4, 0xFFFFFD00, 0xFFFFF0D1, 0x00002FB3, 0x00002328, 
    0xFFFFFE7E, 0x00000A43, 0x000005DD, 0xFFFFF05B, 0x0000152A, 0x000014EE, 0xFFFFEC63, 0x00001EFA, 
    0x00003936, 0x000027DB, 0x0000074A, 0x0000017F, 0xFFFFE246, 0x0000094B, 0xFFFFE0E9, 0xFFFFE540, 
    0xFFFFF535, 0xFFFFE79A, 0xFFFFF8C6, 0xFFFFCF3E, 0xFFFFDC36, 0xFFFFEC66, 0x00000702, 0xFFFFFCED, 
    0xFFFFFDA8, 0x00000B18, 0x0000084A, 0x00000C7F, 0xFFFFFEAB, 0xFFFFF8E3, 0x0000052C, 0x0000284A, 
    0x00000A92, 0xFFFFF6FF, 0xFFFFE40F, 0x00000DAC, 0x00001D74, 0x00001838, 0x00000F70, 0x0000277B, 
    0x00003524, 0x00002645, 0xFFFFBEDE, 0xFFFFCAB8, 0x00000421, 0xFFFFCA9A, 0xFFFFFA38, 0xFFFFD32B, 
    0xFFFFD6F0, 0xFFFFDD77, 0xFFFFEC92, 0x00000FEA, 0x000016E5, 0xFFFFFEEF, 0xFFFFE2F3, 0x00000223, 
    0x00001BD8, 0xFFFFFBE9, 0x000019C6, 0x0000233D, 0xFFFFFE76, 0x0000236B, 0xFFFFFC5C, 0xFFFFFB4B, 
    0x000014A7, 0xFFFFF9A9, 0x000016DA, 0x00001E73, 0xFFFFF485, 0x000016CD, 0x00001F87, 0x00000E10, 
    0xFFFFE8A2, 0xFFFFFED4, 0xFFFFFCA2, 0x00002495, 0x00002274, 0xFFFFE77B, 0xFFFFF8F7, 0x000022B5, 
    0xFFFFF3D5, 0x0000038E, 0xFFFFEBA7, 0xFFFFE779, 0x000005CF, 0x00000A61, 0x000001C0, 0xFFFFF91D, 
    0x00001738, 0x000012DA, 0xFFFFFF79, 0x0000146B, 0x0000090F, 0xFFFFD549, 0xFFFFD390, 0xFFFFEBE4, 
    0xFFFFF67C, 0x00002060, 0x00001748, 0xFFFFD34C, 0xFFFFC789, 0xFFFFF1A8, 0x00002FEE, 0x00002D03, 
    0xFFFFEB3A, 0xFFFFFA8C, 0xFFFFE5C8, 0x00003072, 0x00001963, 0x00002AE4, 0x0000071A, 0xFFFFDBA7, 
    0x00002E7F, 0xFFFFFA86, 0x00001DCA, 0x0000260C, 0x00001D9B, 0xFFFFEBC4, 0xFFFFDB5B, 0xFFFFDAB8, 
    0xFFFFFE55, 0x000021C9, 0x0000220E, 0xFFFFD71C, 0xFFFFFB46, 0xFFFFDF3D, 0xFFFFD678, 0x00000251, 
    0x00001553, 0x000012A9, 0xFFFFF870, 0xFFFFE5AB, 0xFFFFFA25, 0xFFFFE43C, 0xFFFFFFCE, 0x00003A13, 
    0x00002D7B, 0xFFFFD0B4, 0x000007E5, 0xFFFFF200, 0xFFFFF4FE, 0x000020DC, 0x00001127, 0x00000927, 
    0xFFFFEE5D, 0xFFFFE63A, 0x0000083F, 0xFFFFFF7A, 0x00001CB1, 0xFFFFE341, 0xFFFFED4F, 0xFFFFF84A, 
    0xFFFFE575, 0x000009C4, 0x000019EF, 0xFFFFF308, 0x000015D9, 0xFFFFD7B9, 0xFFFFD715, 0x00001813, 
    0x00002FF9, 0x00002ACC, 0xFFFFFB35, 0xFFFFE774, 0x000008BD, 0xFFFFE9A1, 0x00000525, 0x00002376, 
    0xFFFFFD7A, 0x00001C7E, 0xFFFFEE93, 0x00000831, 0x000022A5, 0xFFFFF9EA, 0x00000F75, 0xFFFFE81A, 
    0x00002402, 0x00000D72, 0xFFFFF042, 0xFFFFD0EE, 0xFFFFD58E, 0x00000599, 0x00000C61, 0xFFFFED4F, 
    0xFFFFEA66, 0xFFFFD883, 0xFFFFCAEA, 0x000023AB, 0x00003816, 0x00002CA1, 0x00001EE4, 0x00001667, 
    0x00001614, 0x000033CE, 0x00000444, 0x00003954, 0x000013A2, 0x00001955, 0x00003B17, 0x0000515B, 
    0x0000463C, 0x00003448, 0x00000E7F, 0x00004032, 0x00000893, 0x00000713, 0x00001653, 0xFFFFE83B, 
    0xFFFFD120, 0xFFFFD129, 0xFFFFF969, 0xFFFFF97C, 0x00001AED, 0x000017C7, 0xFFFFF52B, 0xFFFFEAB5, 
    0xFFFFF1C6, 0x00001B15, 0x00000713, 0x0000185C, 0x0000033E, 0x00000A6C, 0xFFFFD427, 0xFFFFCABD, 
    0xFFFFCA66, 0x0000046F, 0xFFFFFFD9, 0xFFFFEE59, 0xFFFFE6FA, 0xFFFFF881, 0xFFFFE400, 0x0000175A, 
    0xFFFFF39D, 0xFFFFE5C4, 0x0000129C, 0xFFFFF56E, 0xFFFFE6D4, 0x00001463, 0x00000D3B, 0x00001A5F, 
    0x00001664, 0x000027BE, 0x00001316, 0x00000A58, 0xFFFFFC54, 0x00001824, 0xFFFFF79E, 0xFFFFF424, 
    0xFFFFE757, 0x000000B3, 0xFFFFFE35, 0x0000093B, 0xFFFFE56D, 0x00000D43, 0xFFFFF466, 0xFFFFDBA4, 
    0x00001483, 0xFFFFF534, 0x00001CE0, 0xFFFFF15A, 0xFFFFEC7A, 0xFFFFE485, 0x00001626, 0xFFFFFC79, 
    0xFFFFFE52, 0xFFFFFA81, 0x00001A58, 0xFFFFF992, 0xFFFFF81C, 0x00000996, 0x000026BE, 0x000007E8, 
    0x0000183A, 0xFFFFEAD6, 0xFFFFEC1C, 0x00001994, 0xFFFFFCA9, 0x00000EA6, 0x000006F2, 0x00002530, 
    0xFFFFF632, 0x000003C0, 0xFFFFF2CF, 0x000005FA, 0xFFFFEC3F, 0xFFFFD848, 0xFFFFF266, 0x00000B42, 
    0x000003FC, 0x00001740, 0xFFFFE8E0, 0x0000081E, 0xFFFFDC01, 0xFFFFECBB, 0x00000627, 0xFFFFF241, 
    0xFFFFFA1A, 0xFFFFF445, 0x00000D28, 0xFFFFF55C, 0xFFFFF8C0, 0x000035A1, 0xFFFFF537, 0xFFFFE096, 
    0xFFFFEF3E, 0x00000B3B, 0xFFFFED04, 0x0000415E, 0x00001F31, 0x000026BB, 0x0000294B, 0xFFFFF146, 
    0xFFFFEF2D, 0x0000164F, 0x00001521, 0xFFFFE257, 0x00000AD9, 0x000015A8, 0x00002017, 0x00001777, 
    0xFFFFEB77, 0xFFFFF4EE, 0xFFFFF139, 0xFFFFE2A3, 0xFFFFC710, 0xFFFFC6AC, 0xFFFFCF8C, 0xFFFFF4D6, 
    0xFFFFD583, 0xFFFFF5B2, 0x00000783, 0xFFFFD7E0, 0x0000063E, 0xFFFFEF6C, 0xFFFFFF74, 0xFFFFF9A4, 
    0xFFFFE45C, 0x00001BFE, 0xFFFFF985, 0xFFFFE6E1, 0xFFFFFE86, 0xFFFFE781, 0x000020A6, 0x000018C0, 
    0x00001647, 0x00001C56, 0x0000241E, 0x00001D83, 0x000021CB, 0xFFFFE92B, 0xFFFFE251, 0x000020FD, 
    0x00000C1B, 0xFFFFFC8A, 0x000016B8, 0x00002EDC, 0xFFFFF797, 0x0000030C, 0xFFFFFEDA, 0xFFFFE1D4, 
    0xFFFFF923, 0xFFFFE78B, 0xFFFFE4D2, 0xFFFFDEA9, 0xFFFFC499, 0xFFFFDE52, 0xFFFFF224, 0xFFFFF11A, 
    0x0000048D, 0xFFFFEF36, 0xFFFFE584, 0x000026AB, 0xFFFFC5B7, 0x000012D6, 0xFFFFEABC, 0x00001E04, 
    0x0000067E, 0x000005F9, 0x00002603, 0x00002D05, 0x00001D7C, 0x00002BB8, 0x00000D96, 0x000020B1, 
    0x000019DB, 0x000023EC, 0x000018E5, 0x00000FDD, 0xFFFFEC16, 0xFFFFE9A1, 0xFFFFE78D, 0x00000CB7, 
    0x0000298B, 0x00000052, 0x0000038C, 0xFFFFE756, 0x000023A3, 0x00001446, 0x00003F6D, 0x00001397, 
    0x000039B6, 0x00002B07, 0x000036B9, 0x00003B6F, 0x00002FE1, 0x00004860, 0x00002C4F, 0x000016A4, 
    0xFFFFF1EB, 0xFFFFEB84, 0xFFFFF3CA, 0xFFFFFD43, 0xFFFFFBF5, 0x00000310, 0x000013A0, 0x000012FC, 
    0x00001025, 0xFFFFCEF0, 0xFFFFE86F, 0xFFFFCAF7, 0x00000125, 0xFFFFE96E, 0xFFFFFDF4, 0xFFFFFCC0, 
    0xFFFFF98A, 0xFFFFE310, 0xFFFFE326, 0xFFFFE482, 0xFFFFE50A, 0x0000030C, 0x00001C89, 0x000018DB, 
    0x00001812, 0x000004CE, 0xFFFFFEBB, 0x00000E71, 0x00001190, 0xFFFFEE33, 0x0000158C, 0x0000295E, 
    0xFFFFF775, 0x0000101C, 0x00000893, 0xFFFFE4EF, 0x0000169E, 0xFFFFE9B5, 0x000005FB, 0xFFFFEF73, 
    0xFFFFEFDE, 0x0000293A, 0x00002003, 0xFFFFE3B9, 0xFFFFFEE7, 0xFFFFFCC1, 0x00002204, 0xFFFFE7EB, 
    0xFFFFE9E7, 0xFFFFE0D4, 0xFFFFE1C0, 0x000008F5, 0x00000716, 0xFFFFEABE, 0x00000934, 0x000005B2, 
    0xFFFFEA1D, 0x00000DD7, 0x000008A7, 0x000000DF, 0x0000280C, 0x00000D84, 0x0000039D, 0xFFFFEC9C, 
    0xFFFFE559, 0x00000504, 0x00001732, 0x000019AE, 0xFFFFF2F3, 0x00000D69, 0x00001BDB, 0xFFFFE42B, 
    0x00000DEA, 0x00001480, 0x0000017F, 0x00002BA8, 0xFFFFFD26, 0x00002D4D, 0xFFFFEDE8, 0xFFFFEC65, 
    0xFFFFE69E, 0x00001653, 0x000016C2, 0x00001A22, 0xFFFFFF4C, 0xFFFFDDB3, 0x00000563, 0x00000935, 
    0x000011CB, 0x00000732, 0xFFFFE4C5, 0xFFFFE921, 0xFFFFE86C, 0xFFFFD0F1, 0xFFFFF5C9, 0xFFFFFCC5, 
    0xFFFFED71, 0x00001B24, 0xFFFFF477, 0xFFFFE8C6, 0xFFFFF47B, 0xFFFFE7D6, 0xFFFFD928, 0x00001AE7, 
    0x00000DFA, 0x00001867, 0x000021A1, 0xFFFFE1A0, 0x00000C72, 0x0000309F, 0x000030C5, 0x00002925, 
    0x00000993, 0x00002259, 0x0000259C, 0x00003E87, 0x00001E9E, 0x0000278A, 0x0000245D, 0xFFFFEF7A, 
    0xFFFFEA06, 0xFFFFF67C, 0xFFFFDEE2, 0x00000337, 0x00000B43, 0xFFFFDAA7, 0xFFFFE65D, 0x00000D51, 
    0xFFFFF903, 0x00000F2B, 0x00001121, 0xFFFFE438, 0xFFFFE012, 0x000034C4, 0xFFFFC790, 0xFFFFF7D1, 
    0xFFFFE838, 0x00000006, 0x00000865, 0x00001033, 0x000030E1, 0x000016D5, 0x0000198A, 0x00002064, 
    0xFFFFEB69, 0x00000172, 0xFFFFE31C, 0xFFFFF909, 0xFFFFF831, 0x000002AD, 0x0000277A, 0x00000C10, 
    0xFFFFD16E, 0xFFFFE608, 0xFFFFDF69, 0xFFFFE879, 0xFFFFDCDF, 0xFFFFE987, 0x00001154, 0x0000013E, 
    0xFFFFF0BC, 0xFFFFF039, 0x00000E85, 0xFFFFE069, 0x0000170B, 0x00000FBE, 0xFFFFED78, 0x00000450, 
    0xFFFFDD4B, 0xFFFFE65A, 0xFFFFC08F, 0x00000C89, 0xFFFFEEC0, 0xFFFFC9C9, 0xFFFFF6AC, 0xFFFFE357, 
    0xFFFFDF96, 0xFFFFD4BC, 0xFFFFE3AA, 0x0000428A, 0x00002E7C, 0xFFFFE473, 0xFFFFEB80, 0x00000788, 
    0x00000568, 0x000010B5, 0x00001C28, 0xFFFFF30A, 0x00000101, 0x000038D3, 0x00003C9E, 0x0000129E, 
    0x000012D2, 0x0000036F, 0x00003298, 0x000025CC, 0x000010D5, 0x00002C77, 0x00000C46, 0xFFFFFC7C, 
    0x00002075, 0x00002138, 0x00001382, 0xFFFFE46D, 0xFFFFDFC5, 0xFFFFEBE4, 0xFFFFECE4, 0xFFFFE7B9, 
    0x00001265, 0xFFFFF912, 0xFFFFE528, 0xFFFFDBC2, 0xFFFFF582, 0x00000967, 0xFFFFF2B1, 0xFFFFF2D2, 
    0xFFFFFAAE, 0xFFFFE90A, 0x0000033B, 0x00002E14, 0x00003A4D, 0x000046E9, 0x00000ED1, 0x000022C4, 
    0x000008CE, 0x00003591, 0x00002FE5, 0xFFFFF182, 0xFFFFE732, 0x00002555, 0xFFFFFBC9, 0xFFFFEFD0, 
    0x000018F2, 0xFFFFDCB3, 0x000014E1, 0xFFFFF21B, 0xFFFFCB62, 0xFFFFF2DC, 0x0000193E, 0xFFFFEF96, 
    0x00000123, 0xFFFFD96E, 0xFFFFFE55, 0xFFFFEF0D, 0xFFFFEE1D, 0x00000E13, 0x0000200E, 0x00000668, 
    0x00001F6E, 0x000030ED, 0xFFFFF662, 0xFFFFFA41, 0xFFFFF748, 0x0000112D, 0x0000201C, 0xFFFFFBD0, 
    0xFFFFF0DC, 0xFFFFE3B7, 0xFFFFEA93, 0xFFFFDC79, 0xFFFFCBCA, 0xFFFFE521, 0x00000F1C, 0xFFFFE77B, 
    0xFFFFFC54, 0x000030B1, 0xFFFFFD93, 0x00002584, 0x00000F5D, 0x00000524, 0x0000111C, 0xFFFFF4B3, 
    0xFFFFDD00, 0x00000ABD, 0x00003B89, 0x00001D95, 0xFFFFEDB5, 0xFFFFE9DD, 0xFFFFFA9A, 0xFFFFC27F, 
    0xFFFFD44F, 0x00000294, 0xFFFFCB55, 0xFFFFF8DB, 0x00001A09, 0x00001B3A, 0x00002356, 0x00000ED4, 
    0x000038BF, 0x00003FA4, 0xFFFFFFCE, 0xFFFFFEA1, 0x00002A10, 0x000009FF, 0x0000198B, 0xFFFFFDB0, 
    0x0000038F, 0xFFFFFA70, 0xFFFFF543, 0x000007AF, 0xFFFFF29F, 0xFFFFFA2E, 0x00001A64, 0x00000FB0, 
    0xFFFFD913, 0xFFFFF01A, 0xFFFFD880, 0xFFFFD787, 0x00000D15, 0x00001C19, 0xFFFFEC60, 0x00000542, 
    0x0000258A, 0xFFFFE282, 0x000012D9, 0x00000EE8, 0x00001DB7, 0xFFFFD9E2, 0xFFFFE650, 0xFFFFF51A, 
    0xFFFFF25B, 0xFFFFDF9C, 0x00001FCC, 0x00001DA6, 0xFFFFDE8F, 0xFFFFD219, 0x00000666, 0x000008CC, 
    0x000018C4, 0x00000C78, 0x00000093, 0xFFFFF314, 0x00002735, 0x0000123D, 0x00000B73, 0x000035A2, 
    0x000001C8, 0x00001F21, 0x00000F3C, 0x00001A42, 0xFFFFF700, 0xFFFFFF3B, 0xFFFFF520, 0xFFFFD0D2, 
    0xFFFFDFD3, 0xFFFFF2D7, 0x00000F22, 0x0000195D, 0xFFFFEA2B, 0x00000607, 0x00000021, 0x00000F56, 
    0xFFFFF594, 0xFFFFFA2F, 0x00002045, 0xFFFFEF8E, 0xFFFFE93E, 0x000020E4, 0xFFFFDF5C, 0x00000ED0, 
    0xFFFFFC69, 0xFFFFF15E, 0x0000021A, 0x00002C4E, 0xFFFFF051, 0xFFFFD804, 0x0000182B, 0x00001E0A, 
    0x000001C8, 0x00002E9E, 0x00002561, 0x00000B7C, 0x000006D0, 0xFFFFDBED, 0xFFFFFB7B, 0x00002285, 
    0xFFFFF177, 0xFFFFE7C3, 0xFFFFD761, 0xFFFFF80A, 0x00000D28, 0xFFFFDB41, 0x00001127, 0x000026F8, 
    0x00001E64, 0x000007C7, 0x000022E9, 0xFFFFEBBF, 0x00000342, 0xFFFFE670, 0x00001297, 0xFFFFF468, 
    0x00000266, 0xFFFFF5C2, 0xFFFFF618, 0xFFFFF1F3, 0xFFFFDFF1, 0xFFFFE0A9, 0xFFFFE001, 0x00000987, 
    0x000030F8, 0x00001DC3, 0x00002752, 0x00001EF9, 0xFFFFF2BD, 0xFFFFD127, 0x000006EF, 0xFFFFF54A, 
    0xFFFFF590, 0xFFFFDC78, 0xFFFFF76A, 0xFFFFB96C, 0xFFFFBD0F, 0xFFFFB8B6, 0x00000EEF, 0xFFFFE843, 
    0xFFFFEB40, 0xFFFFEB0C, 0xFFFFF0AA, 0xFFFFD714, 0xFFFFD725, 0x0000058B, 0xFFFFD71E, 0xFFFFD639, 
    0x00000C0E, 0x00000671, 0x00001C0E, 0xFFFFF847, 0xFFFFF91F, 0xFFFFF52E, 0xFFFFEE0A, 0xFFFFFF62, 
    0x00000AAE, 0xFFFFCF12, 0x00001A7D, 0xFFFFF5C6, 0xFFFFE3E7, 0x000024E2, 0xFFFFFB3C, 0x00001652, 
    0xFFFFE66A, 0xFFFFEBDF, 0xFFFFFC3D, 0xFFFFDDD2, 0x00002900, 0x00003086, 0x000026C0, 0x000005E3, 
    0x00001B41, 0x000006C5, 0x000007E2, 0xFFFFF517, 0xFFFFDDC2, 0xFFFFD064, 0xFFFFEC2C, 0x00001359, 
    0x00000232, 0x000032C2, 0xFFFFF931, 0x00001439, 0x00001703, 0xFFFFF25D, 0xFFFFFC14, 0xFFFFFE71, 
    0xFFFFFD5A, 0xFFFFFEF4, 0xFFFFEA23, 0x00001995, 0x00001629, 0x00001E92, 0x00001D35, 0x0000120F, 
    0x00000ED8, 0x000017FE, 0xFFFFFC12, 0x00000E14, 0xFFFFCEF8, 0xFFFFD415, 0xFFFFBFAA, 0x00003391, 
    0x00000EAC, 0xFFFFF95E, 0x00000BE6, 0xFFFFFE96, 0x000013FF, 0x00001C49, 0xFFFFD19F, 0xFFFFE383, 
    0xFFFFE4DF, 0x00000DA1, 0x00001FD9, 0x00001D95, 0x000002A6, 0x000002E5, 0x00000486, 0xFFFFD95A, 
    0xFFFFFC9E, 0xFFFFDC0A, 0xFFFFDB41, 0xFFFFE6F3, 0xFFFFDC70, 0xFFFFF004, 0x00000805, 0xFFFFF814, 
    0xFFFFFEFA, 0xFFFFF299, 0x00001BE5, 0xFFFFF54D, 0x00000409, 0xFFFFF06A, 0x00001136, 0xFFFFED8A, 
    0x00000E53, 0x00000463, 0x00001B96, 0xFFFFF955, 0x0000295D, 0x00000857, 0xFFFFF4BC, 0x000015B5, 
    0x00000427, 0xFFFFEFAE, 0xFFFFD968, 0xFFFFC2C3, 0x00001DF1, 0x00002F85, 0x000033F5, 0x00001746, 
    0xFFFFFB86, 0x000019A6, 0x000011F9, 0xFFFFE487, 0x00001033, 0x000008D4, 0xFFFFF763, 0x0000063F, 
    0xFFFFF686, 0xFFFFFEDA, 0xFFFFF653, 0x0000023A, 0x00002188, 0xFFFFF8EE, 0x00001968, 0x00001D8C, 
    0xFFFFFB75, 0xFFFFFABA, 0xFFFFDB8C, 0xFFFFCDC6, 0xFFFFDA00, 0x00001893, 0x00001A6C, 0xFFFFEA0C, 
    0xFFFFED5E, 0x00000C60, 0xFFFFCBFA, 0xFFFFD2D3, 0xFFFFFE25, 0xFFFFDB08, 0xFFFFF277, 0x0000307D, 
    0xFFFFF985, 0xFFFFE814, 0x00001E7B, 0xFFFFFD6D, 0x0000083F, 0xFFFFD597, 0xFFFFE2B6, 0xFFFFE8DF, 
    0xFFFFEF68, 0x00002A92, 0x000019F0, 0xFFFFF366, 0x000004AF, 0x00000C96, 0xFFFFEE6C, 0x000000C3, 
    0xFFFFFF70, 0x00000444, 0xFFFFE489, 0xFFFFED34, 0x00000ECE, 0xFFFFF164, 0xFFFFEDAB, 0xFFFFB5FE, 
    0x00002B65, 0x0000440E, 0x000013C0, 0x00002B81, 0xFFFFFBDF, 0x0000371F, 0xFFFFFF15, 0x000018F0, 
    0x000026EF, 0xFFFFEED8, 0x00000EF3, 0x000006CD, 0xFFFFFE7E, 0x000022DB, 0x000024AD, 0xFFFFF841, 
    0xFFFFE06E, 0xFFFFD466, 0xFFFFCD23, 0xFFFFE992, 0xFFFFCA11, 0xFFFFCBA5, 0xFFFFFF39, 0xFFFFD862, 
    0xFFFFE914, 0xFFFFE186, 0x00001C39, 0x00001D70, 0x00002721, 0x000027C4, 0xFFFFD820, 0xFFFFF07B, 
    0xFFFFEC6A, 0x000003BA, 0x000028ED, 0xFFFFCD97, 0xFFFFE266, 0xFFFFFD42, 0xFFFFDC64, 0xFFFFD2B7, 
    0x00000027, 0x00003D0F, 0x0000319E, 0xFFFFFC76, 0xFFFFF6F6, 0x00001EB4, 0x00001402, 0xFFFFF672, 
    0x000015E6, 0x000004FE, 0xFFFFDEB7, 0xFFFFF6F8, 0xFFFFEADE, 0x00000FE7, 0xFFFFF1D9, 0xFFFFFDD5, 
    0x000003AF, 0xFFFFE264, 0xFFFFFF7D, 0x0000013A, 0x0000328B, 0x00001B52, 0x0000070C, 0x00001984, 
    0x000013BD, 0x00000CE2, 0x000006CF, 0xFFFFF5A4, 0x0000042E, 0x000016D7, 0x00002090, 0xFFFFFAFC, 
    0x00000C2C, 0x00000480, 0xFFFFEB07, 0x0000185E, 0x000025E0, 0x000009DD, 0x00000334, 0x000016B9, 
    0x00000C37, 0xFFFFE784, 0xFFFFE88A, 0xFFFFDFA1, 0xFFFFFE91, 0xFFFFF13A, 0x00000EBC, 0xFFFFE509, 
    0xFFFFE25A, 0x00002363, 0x000026F8, 0x000007C3, 0x00000A20, 0xFFFFFA2E, 0x000017A9, 0xFFFFE131, 
    0x00001E7A, 0xFFFFFF1C, 0xFFFFD127, 0x00000822, 0xFFFFFA0B, 0x00000423, 0x00002DF4, 0x00001777, 
    0xFFFFD839, 0x000014AD, 0x00000753, 0xFFFFFB7D, 0xFFFFF7DE, 0x000003B4, 0xFFFFE2C4, 0x00001E97, 
    0x0000077C, 0xFFFFDC8F, 0xFFFFFD32, 0xFFFFEC15, 0x00002517, 0xFFFFEBFD, 0x0000199C, 0xFFFFFA3F, 
    0xFFFFE0FD, 0xFFFFCC76, 0xFFFFDFDA, 0xFFFFFE5B, 0x000009F7, 0x00000E0F, 0x00000CAC, 0xFFFFD991, 
    0x00001D87, 0xFFFFFE54, 0x00002EFA, 0x00000A4F, 0x00000EE9, 0x00001C33, 0x00001E20, 0x00002A78, 
    0xFFFFF54C, 0x000029D9, 0x0000120B, 0x00000D53, 0xFFFFEA23, 0x000017D1, 0xFFFFEFF4, 0x00002113, 
    0x00000B30, 0x00000BB5, 0xFFFFF861, 0x00001F4B, 0xFFFFF3DD, 0xFFFFD586, 0xFFFFF3FF, 0xFFFFFF73, 
    0xFFFFFAEA, 0x00000480, 0x00000A12, 0x00002C79, 0x00001E16, 0xFFFFD66A, 0x000009D8, 0x00000402, 
    0xFFFFF8CF, 0x00004270, 0x000028D4, 0xFFFFFF9C, 0xFFFFFAF7, 0xFFFFED90, 0x00002226, 0x000023D8, 
    0xFFFFFCFA, 0xFFFFF827, 0xFFFFF9BE, 0xFFFFFD44, 0xFFFFD777, 0xFFFFDA95, 0xFFFFED00, 0x00001907, 
    0xFFFFF24D, 0xFFFFD4DB, 0xFFFFF08C, 0x00002FA1, 0xFFFFCF9C, 0xFFFFE63E, 0xFFFFDCEA, 0xFFFFE467, 
    0xFFFFECE5, 0xFFFFECCA, 0x00000BFE, 0x000008DA, 0x0000198E, 0xFFFFEF51, 0xFFFFF73C, 0x0000100E, 
    0xFFFFD1D5, 0xFFFFF1D0, 0xFFFFCFD7, 0xFFFFE822, 0xFFFFF246, 0xFFFFE1C3, 0x0000113D, 0xFFFFEFF6, 
    0x00002425, 0x000035A4, 0x00003B1B, 0x00000799, 0x00001F3C, 0x00001FF0, 0x00001168, 0xFFFFF210, 
    0x00001849, 0x00002321, 0x00002768, 0x00001EF3, 0x00001CF0, 0x000005CA, 0xFFFFE2A1, 0x00003124, 
    0xFFFFFD6A, 0x00002084, 0x00001E77, 0x00000AEE, 0x0000107E, 0xFFFFEBF6, 0xFFFFF83D, 0xFFFFE377, 
    0x00000F43, 0x000027DE, 0xFFFFFA83, 0x0000112C, 0xFFFFF8C6, 0x00000DA4, 0xFFFFFA22, 0x00002605, 
    0x000000FE, 0x00001635, 0x00000502, 0x0000003E, 0x000025D1, 0xFFFFFB30, 0xFFFFE800, 0x0000091A, 
    0xFFFFF162, 0x0000018A, 0xFFFFF8D3, 0xFFFFC670, 0xFFFFC26C, 0x00003033, 0x00000E4C, 0x00001207, 
    0x00000A6A, 0xFFFFFC07, 0x00001BB5, 0xFFFFFDA6, 0x000003E2, 0x00001784, 0x000009C0, 0xFFFFF217, 
    0xFFFFF9BC, 0x00002DA3, 0x000015B7, 0x00002F39, 0xFFFFFBF3, 0x0000164D, 0x00001C91, 0x00001A2F, 
    0xFFFFE1D9, 0x0000205D, 0x00001A54, 0x00000C58, 0xFFFFF178, 0xFFFFD515, 0xFFFFF637, 0x00000800, 
    0x00003831, 0x00002FA5, 0xFFFFF770, 0xFFFFE42E, 0xFFFFEBF1, 0xFFFFDB93, 0xFFFFDDBB, 0x00000AB9, 
    0xFFFFF426, 0x00001859, 0xFFFFEEC1, 0xFFFFFBC7, 0x00000D5A, 0x00001EB1, 0xFFFFEF3E, 0x00002113, 
    0xFFFFFC4B, 0x00001868, 0xFFFFF778, 0xFFFFFCB8, 0xFFFFFD27, 0xFFFFDDF1, 0xFFFFDCC4, 0xFFFFFDC4, 
    0x00001760, 0x00002E7B, 0x00002F42, 0x00001FC0, 0xFFFFDDC2, 0xFFFFFAB9, 0xFFFFDDB8, 0xFFFFE910, 
    0xFFFFE051, 0xFFFFFD5B, 0x00000467, 0xFFFFFD6C, 0xFFFFEFB5, 0xFFFFF37B, 0xFFFFFA4A, 0x00002913, 
    0x0000163E, 0xFFFFEFDD, 0x00000C02, 0xFFFFFA8D, 0xFFFFF1CB, 0x00000953, 0x000000E4, 0x000013CD, 
    0x00001B5C, 0x00000BE7, 0xFFFFF8CE, 0xFFFFF195, 0xFFFFF4D4, 0xFFFFE571, 0xFFFFE3F0, 0xFFFFCB2E, 
    0xFFFFDE16, 0xFFFFBED2, 0xFFFFE46A, 0x00001D3B, 0xFFFFD8BC, 0x000013A2, 0x00001914, 0x00002F62, 
    0x000023AA, 0x000025A7, 0x00001CA3, 0xFFFFFA1D, 0xFFFFDF64, 0x00000F58, 0xFFFFFA9A, 0x00001C3C, 
    0xFFFFF07F, 0x000015CE, 0x0000224F, 0x00000185, 0x000022BC, 0x00001D16, 0xFFFFCF81, 0xFFFFB9D5, 
    0x00000017, 0xFFFFE3F3, 0xFFFFE734, 0xFFFFCB26, 0xFFFFFAAC, 0xFFFFD2A0, 0xFFFFDF8F, 0xFFFFF596, 
    0x00002687, 0xFFFFF1FA, 0x00000B0F, 0xFFFFDC39, 0x00000E32, 0x0000151D, 0x00000FAD, 0x00000F00, 
    0x00001361, 0xFFFFEDAC, 0xFFFFE01A, 0xFFFFFE1D, 0xFFFFF5BA, 0x00002053, 0x00000468, 0xFFFFF4E3, 
    0x00000B96, 0xFFFFF4D4, 0x00001EF1, 0x00001E03, 0xFFFFEA01, 0xFFFFFB0A, 0x00000B50, 0xFFFFEF7B, 
    0x000009F9, 0x00000406, 0x0000175A, 0x00003097, 0xFFFFFEB5, 0xFFFFEA73, 0xFFFFD1F4, 0xFFFFCE15, 
    0xFFFFF64C, 0x0000024B, 0xFFFFCC81, 0xFFFFFCFB, 0xFFFFE892, 0x000016A7, 0xFFFFE432, 0xFFFFF7FD, 
    0xFFFFFCBA, 0xFFFFED17, 0x00000164, 0xFFFFF831, 0x00001BE4, 0xFFFFC91F, 0xFFFFEAAE, 0x000005DA, 
    0x00000C27, 0xFFFFDD05, 0x000035F6, 0x000039D1, 0xFFFFFDD6, 0x00000011, 0xFFFFFE38, 0xFFFFF4DC, 
    0x00000F20, 0x00001619, 0xFFFFED34, 0x000012B0, 0x000000BC, 0x0000150F, 0x00000DA3, 0xFFFFCFF8, 
    0xFFFFEEE0, 0x00000E9C, 0x00001F2D, 0x000019F5, 0x00000D41, 0xFFFFF31D, 0xFFFFFE56, 0xFFFFEC2E, 
    0xFFFFE0AA, 0xFFFFDE04, 0xFFFFEDB8, 0x0000165A, 0x00000EEE, 0xFFFFF6EB, 0x00000AFA, 0xFFFFEBFD, 
    0x0000194D, 0x0000205E, 0x0000057E, 0x000042CC, 0x00000731, 0xFFFFD6C3, 0xFFFFE798, 0xFFFFEB5C, 
    0x00000B6E, 0xFFFFE82C, 0x00000007, 0x0000062D, 0xFFFFF3EE, 0xFFFFE5E1, 0xFFFFFC98, 0x00001A50, 
    0xFFFFFBBA, 0x00001C17, 0x000019A9, 0xFFFFF575, 0xFFFFED8A, 0x00002369, 0xFFFFEF6D, 0xFFFFFB87, 
    0xFFFFDCC4, 0x00000639, 0xFFFFE46F, 0x00001043, 0xFFFFE8D0, 0x00001132, 0x00000867, 0x0000196B, 
    0x000016B5, 0x00002CFA, 0x00001923, 0xFFFFFFF2, 0x00000600, 0xFFFFF803, 0xFFFFC113, 0xFFFFC420, 
    0x00002409, 0x000027A0, 0xFFFFF01F, 0xFFFFCF7E, 0xFFFFD70F, 0xFFFFF9B6, 0x000018A9, 0x000021A7, 
    0x0000189D, 0x000019E5, 0xFFFFD61A, 0xFFFFC1D3, 0x000012BB, 0x00000F51, 0x000006C6, 0xFFFFD79F, 
    0xFFFFCFDB, 0xFFFFC676, 0x000002D8, 0xFFFFFC92, 0x000015DF, 0xFFFFEA8F, 0xFFFFF865, 0xFFFFE652, 
    0x00000083, 0x000012DA, 0xFFFFE331, 0x000015C2, 0x00000848, 0xFFFFB57A, 0x000007C4, 0xFFFFF762, 
    0xFFFFEBEA, 0x000012C1, 0x00002467, 0xFFFFC35C, 0xFFFFDC7A, 0xFFFFDE86, 0xFFFFFDEB, 0xFFFFE2B5, 
    0xFFFFF6F8, 0x00000D2C, 0x00000A20, 0x00002521, 0xFFFFFF89, 0x00001BAC, 0x00001F16, 0x00001E3B, 
    0x00002294, 0x0000227D, 0xFFFFDEBC, 0xFFFFE618, 0x000015B9, 0xFFFFEF41, 0x0000188B, 0xFFFFF3AD, 
    0xFFFFF6C3, 0x00001EF3, 0xFFFFEF2E, 0x00000157, 0x000028E3, 0x000014F8, 0x0000107E, 0xFFFFF2B4, 
    0x00000B90, 0x000006FD, 0x000016C7, 0x00000E25, 0xFFFFE08F, 0xFFFFDB3F, 0xFFFFC46C, 0xFFFFF030, 
    0xFFFFE04F, 0xFFFFF41E, 0xFFFFDC34, 0xFFFFD91F, 0xFFFFC36C, 0xFFFFFA96, 0xFFFFC78B, 0xFFFFBC57, 
    0x000029F0, 0x00004149, 0x0000169D, 0x00000AEF, 0xFFFFE7D6, 0x000000A5, 0x000012F9, 0xFFFFF0C6, 
    0x000005B7, 0xFFFFDB32, 0x00000871, 0xFFFFE94A, 0xFFFFFFA6, 0xFFFFC9A5, 0xFFFFD9DE, 0x00001D35, 
    0x00000EB3, 0xFFFFF11C, 0xFFFFECCE, 0x00001DBB, 0x00001340, 0xFFFFE7DF, 0xFFFFBBA1, 0xFFFFBCE1, 
    0xFFFFDF8E, 0xFFFFD5C9, 0xFFFFEC09, 0xFFFFF927, 0x000037EA, 0x00001CF4, 0xFFFFEA0D, 0x000011C8, 
    0x000012CF, 0x00001F6E, 0x00004A4A, 0x00000789, 0x00000B25, 0xFFFFF60C, 0xFFFFDBD1, 0xFFFFFDFE, 
    0x000020B3, 0xFFFFFA7D, 0xFFFFE7E5, 0x00000442, 0x00002016, 0x000009CE, 0xFFFFD6CF, 0xFFFFC70D, 
    0xFFFFD965, 0xFFFFD78D, 0x000017ED, 0x00001D47, 0x000020CF, 0x00001360, 0xFFFFFA79, 0x00001C5F, 
    0x00000BC3, 0x000022FC, 0x00000799, 0xFFFFF5B5, 0xFFFFFB56, 0xFFFFF42C, 0x000007AC, 0x00001256, 
    0xFFFFEBE6, 0x00001108, 0x000000CA, 0x00002C7A, 0x000001E6, 0xFFFFE3B9, 0x00003FB7, 0x000039FC, 
    0x00002E50, 0x00001894, 0x00001F20, 0x00001D5B, 0x00000C38, 0xFFFFF4F4, 0x00003235, 0x00002CCB, 
    0xFFFFD469, 0xFFFFD3A4, 0xFFFFDF6E, 0x0000112C, 0xFFFFFF3E, 0xFFFFFFBF, 0xFFFFF418, 0xFFFFED85, 
    0x00000E79, 0xFFFFFDFE, 0xFFFFE103, 0x0000267A, 0xFFFFF4B2, 0x00000AD7, 0xFFFFE2CC, 0xFFFFE6C4, 
    0x000016EA, 0xFFFFE4C6, 0xFFFFFFC9, 0x00001573, 0xFFFFF22C, 0xFFFFF917, 0x00001FCC, 0x00001A0B, 
    0xFFFFDFEF, 0xFFFFE23F, 0xFFFFF893, 0xFFFFF32A, 0xFFFFED2C, 0xFFFFDF25, 0xFFFFF73D, 0xFFFFE208, 
    0x00000E93, 0x000019E1, 0x000029C7, 0xFFFFD614, 0xFFFFED27, 0x000020AB, 0x0000006B, 0x000007CC, 
    0xFFFFE3E3, 0xFFFFFC2A, 0x00000A34, 0xFFFFFD3A, 0xFFFFF649, 0xFFFFDC88, 0x000004E2, 0xFFFFFCC2, 
    0xFFFFEC5D, 0xFFFFE945, 0xFFFFDFF3, 0xFFFFE33F, 0xFFFFDF1B, 0xFFFFEBDF, 0x000009E0, 0x00001579, 
    0x00001976, 0xFFFFF5AC, 0x000001A7, 0x00002684, 0x00001824, 0xFFFFE7ED, 0x000000F3, 0xFFFFD611, 
    0x00001A66, 0x00000439, 0x00001C17, 0xFFFFDA2A, 0xFFFFDB8E, 0x00000979, 0x000010A2, 0x00001B3E, 
    0x00002148, 0x00001F12, 0x00000D46, 0xFFFFD701, 0xFFFFEB5B, 0xFFFFFE9B, 0xFFFFE7B3, 0xFFFFD8F5, 
    0xFFFFEA6F, 0x00001A47, 0x00001D66, 0x00002097, 0x00001F21, 0x00000F9A, 0xFFFFCD66, 0xFFFFD938, 
    0xFFFFD822, 0x00000491, 0x00001A17, 0x0000119E, 0x000007CD, 0x00000DE6, 0x00000A50, 0x000003D2, 
    0xFFFFEDB6, 0xFFFFFA75, 0xFFFFFD4A, 0xFFFFFBB9, 0x00001AB4, 0xFFFFDFD7, 0xFFFFFE69, 0xFFFFEA41, 
    0x00000855, 0x0000162F, 0xFFFFEDDB, 0xFFFFE638, 0xFFFFE518, 0xFFFFCBC9, 0x0000198A, 0x000024FE, 
    0x000057A4, 0x00002BB4, 0x00002570, 0x0000123F, 0xFFFFD7D5, 0x00000899, 0x00001337, 0x000004FC, 
    0xFFFFE5A3, 0x00000545, 0xFFFFF8F3, 0x000036B9, 0x00003B97, 0x000018FB, 0xFFFFCE1A, 0xFFFFFC3D, 
    0xFFFFFB11, 0xFFFFE5F3, 0x000010B0, 0x000009BA, 0xFFFFFD19, 0xFFFFE793, 0x00000458, 0xFFFFDA38, 
    0xFFFFFE0A, 0xFFFFDF0E, 0xFFFFD717, 0xFFFFEEDC, 0xFFFFD26F, 0xFFFFF26F, 0xFFFFF10E, 0x00001675, 
    0xFFFFF7DF, 0xFFFFF6BF, 0xFFFFD9B5, 0xFFFFCF87, 0xFFFFE5B3, 0x0000011E, 0xFFFFE764, 0x00002C04, 
    0x00000044, 0x00000F9B, 0x00001407, 0xFFFFD2DC, 0xFFFFE11D, 0xFFFFD889, 0xFFFFFE54, 0x0000195C, 
    0xFFFFECC4, 0xFFFFF2EC, 0xFFFFF02E, 0xFFFFF10E, 0x00001169, 0x000024C8, 0x00002444, 0xFFFFFB78, 
    0x00000DC0, 0xFFFFFB33, 0xFFFFE345, 0x0000042A, 0xFFFFF306, 0xFFFFDCB8, 0xFFFFFA2C, 0x0000193D, 
    0xFFFFF676, 0x00000714, 0xFFFFF0F0, 0x00001882, 0x00001762, 0xFFFFF52B, 0xFFFFF852, 0xFFFFF5CD, 
    0xFFFFF71D, 0x0000124A, 0xFFFFDFAB, 0x0000166C, 0x00000041, 0xFFFFDDFE, 0x000006A0, 0xFFFFF136, 
    0xFFFFF53E, 0x00000121, 0xFFFFF06B, 0xFFFFFA37, 0x00001C84, 0xFFFFE80E, 0x0000009E, 0x000013E4, 
    0x000013BB, 0xFFFFECC5, 0x00000A06, 0xFFFFE16B, 0x00000D90, 0xFFFFF6BC, 0x000004A9, 0xFFFFEC9A, 
    0x00000FBB, 0x00003542, 0xFFFFE2AA, 0xFFFFE6E1, 0xFFFFD662, 0xFFFFF661, 0xFFFFF569, 0x000006F9, 
    0xFFFFF2D6, 0xFFFFDD0D, 0x00001958, 0x00001304, 0x00000112, 0xFFFFFFDD, 0x000028F2, 0x0000149E, 
    0x00002558, 0xFFFFED5A, 0xFFFFE1D9, 0xFFFFEC5F, 0x00001BBB, 0xFFFFF155, 0x000039F2, 0x0000178C, 
    0x00001B49, 0x000036E7, 0x000029A6, 0xFFFFF28C, 0x000009E1, 0xFFFFE5EE, 0xFFFFBD06, 0xFFFFBA30, 
    0x000002B0, 0x0000083C, 0xFFFFDCA0, 0xFFFFEA4F, 0xFFFFE8BC, 0x00001A18, 0x00000CC5, 0x000016BB, 
    0xFFFFF705, 0x00002314, 0x00001959, 0x0000057E, 0xFFFFFEFF, 0x00000A00, 0xFFFFEC5B, 0xFFFFFA64, 
    0x00002864, 0x0000449A, 0x00000C81, 0xFFFFDD6F, 0x00002C89, 0x000020F4, 0xFFFFF524, 0x00002454, 
    0x000001E4, 0x0000002F, 0xFFFFDDDC, 0xFFFFD8B1, 0xFFFFF79F, 0x00000EA9, 0xFFFFF3E5, 0xFFFFEFD7, 
    0xFFFFF6B7, 0xFFFFFB57, 0x00001D08, 0x000014E1, 0x00000391, 0x0000143F, 0xFFFFD376, 0xFFFFC82D, 
    0x00000ABC, 0xFFFFD0CB, 0xFFFFED59, 0xFFFFF626, 0x000012D5, 0x00000384, 0xFFFFF002, 0xFFFFF0F3, 
    0x00001B2C, 0x0000317C, 0x00001A6B, 0xFFFFFDE0, 0xFFFFF71D, 0xFFFFFB81, 0xFFFFD64A, 0xFFFFE143, 
    0x00000CBB, 0x000022DD, 0xFFFFE9FD, 0xFFFFF5A8, 0xFFFFF88A, 0xFFFFED60, 0x000006C7, 0xFFFFF026, 
    0xFFFFE409, 0xFFFFE69D, 0xFFFFC620, 0xFFFFDE5F, 0x00000FBB, 0x00002970, 0xFFFFF8AD, 0xFFFFCE1B, 
    0xFFFFD632, 0xFFFFE960, 0xFFFFF5F9, 0x0000491B, 0x0000217A, 0x00002456, 0x000016FB, 0x00000F8B, 
    0xFFFFFE5F, 0x00001080, 0x00001052, 0xFFFFD411, 0xFFFFC6C2, 0xFFFFF7E2, 0x00000C40, 0xFFFFD995, 
    0xFFFFF5C3, 0xFFFFE6E0, 0xFFFFF2DA, 0xFFFFC134, 0xFFFFCC80, 0xFFFFE52C, 0xFFFFCF5B, 0x000014E1, 
    0x00002D7E, 0x000015CA, 0x0000003E, 0x00001E72, 0x000005DA, 0x00000237, 0x0000261E, 0xFFFFFD6A, 
    0x000004D6, 0x0000014B, 0xFFFFE8D8, 0xFFFFE17B, 0x00003ABC, 0x0000271D, 0xFFFFEC4A, 0x00001343, 
    0x00001C26, 0x000002A8, 0x000016C7, 0x00001A42, 0x00003039, 0x00002D91, 0x0000082F, 0xFFFFFEEA, 
    0xFFFFF222, 0x00001DFA, 0xFFFFF149, 0xFFFFEF4F, 0x00001B03, 0x000001B0, 0xFFFFF50C, 0x0000014B, 
    0xFFFFE663, 0xFFFFF462, 0x00000366, 0xFFFFDD10, 0xFFFFEC2C, 0x000016A3, 0xFFFFFF48, 0xFFFFE97D, 
    0xFFFFFFB3, 0xFFFFDA83, 0xFFFFFAC5, 0xFFFFE7A5, 0x000030C2, 0x0000255E, 0x00001ECB, 0x0000064B, 
    0xFFFFF481, 0xFFFFEB1D, 0xFFFFE194, 0xFFFFFD8E, 0xFFFFE48F, 0x000006CB, 0x000010E0, 0xFFFFF2EA, 
    0x00000F44, 0xFFFFD3A0, 0xFFFFF8BA, 0xFFFFEEEE, 0x0000074C, 0x00001D14, 0xFFFFF362, 0xFFFFFCCD, 
    0x0000076E, 0x00002E6D, 0x00002377, 0x00002F7E, 0x00003C23, 0x0000160E, 0xFFFFF7FA, 0x0000047B, 
    0x00001402, 0x00001EC5, 0xFFFFE27A, 0xFFFFDBE4, 0xFFFFCE18, 0x000006B5, 0xFFFFE68F, 0x000026A4, 
    0x000038F6, 0x0000184F, 0x0000131D, 0x00003231, 0xFFFFC007, 0xFFFFDF87, 0xFFFFC22D, 0xFFFFE746, 
    0xFFFFD934, 0x00002AFE, 0x00001080, 0x00002140, 0x00000921, 0x00001A0B, 0xFFFFD971, 0xFFFFF787, 
    0xFFFFE80D, 0xFFFFEE91, 0xFFFFE719, 0x00002E76, 0xFFFFFF87, 0x0000266A, 0x00002FDC, 0x0000167E, 
    0x00000268, 0xFFFFDFEC, 0xFFFFE75D, 0xFFFFE2E6, 0x00000E0D, 0x00001ED2, 0x00000BF7, 0x0000069A, 
    0x00003325, 0x00000F4D, 0xFFFFD683, 0x000001C5, 0xFFFFE502, 0x000008D9, 0x0000017D, 0xFFFFB9C9, 
    0xFFFFE615, 0xFFFFD4E0, 0xFFFFD041, 0xFFFFEE26, 0xFFFFFB81, 0xFFFFFF43, 0x000012C8, 0xFFFFFCE3, 
    0x000021C0, 0x000003F4, 0xFFFFF0BB, 0xFFFFE733, 0x00000550, 0x00000A9E, 0xFFFFE885, 0xFFFFFB26, 
    0xFFFFD7C4, 0x0000057C, 0xFFFFE1F6, 0xFFFFF493, 0x000027FF, 0x000003D7, 0x00003C7C, 0x000019A0, 
    0xFFFFF42D, 0x00001BD1, 0x000014CB, 0xFFFFE010, 0xFFFFCF7A, 0xFFFFE9B2, 0xFFFFD999, 0xFFFFF455, 
    0xFFFFF518, 0xFFFFF093, 0x000000CC, 0x00003255, 0xFFFFF2EB, 0x00002E21, 0xFFFFFC9E, 0xFFFFED06, 
    0xFFFFD8F5, 0xFFFFEF3E, 0xFFFFD93B, 0xFFFFFBBA, 0xFFFFEC6B, 0xFFFFFAED, 0xFFFFDC3A, 0x000019BE, 
    0x000012BD, 0x00002369, 0xFFFFE7AC, 0xFFFFF221, 0x00001B39, 0x00001607, 0x00001D01, 0x00000E7C, 
    0x00001822, 0x0000016D, 0xFFFFF3A9, 0xFFFFF731, 0xFFFFFF74, 0xFFFFFD69, 0x000023B1, 0x0000243F, 
    0xFFFFFAD4, 0x000011B5, 0x00001EC3, 0xFFFFFB4B, 0xFFFFEE70, 0x00000059, 0xFFFFF78E, 0x00000686, 
    0x00003265, 0x00000EAC, 0x00003170, 0x00000DAC, 0xFFFFEFE2, 0xFFFFE02E, 0xFFFFE31E, 0xFFFFF766, 
    0xFFFFE975, 0x00001931, 0xFFFFF022, 0xFFFFFC95, 0x00001798, 0x00000262, 0x0000226D, 0xFFFFEBF7, 
    0x00001905, 0x0000034F, 0xFFFFF78E, 0x00002625, 0x00001A03, 0xFFFFE218, 0xFFFFEBA0, 0x000022F2, 
    0x00000B20, 0x00000BAA, 0xFFFFFDA7, 0xFFFFEF28, 0x00002800, 0x0000206C, 0x00000258, 0x00001F0A, 
    0xFFFFFCA0, 0x00001749, 0xFFFFD8B2, 0xFFFFF2FB, 0xFFFFE2A0, 0x0000179A, 0x00000A27, 0x0000101A, 
    0x000031D7, 0xFFFFFA4E, 0x0000217C, 0x00001D8F, 0x00002B44, 0x000035D7, 0x00003218, 0xFFFFE33E, 
    0xFFFFF3FA, 0x00001710, 0x00001BB4, 0x00001AEE, 0x00002CF6, 0xFFFFFAA7, 0x00001F4D, 0x00002ECE, 
    0xFFFFFA76, 0xFFFFD1E1, 0xFFFFDB5D, 0xFFFFCDEA, 0xFFFFC823, 0xFFFFBCCA, 0x00001695, 0xFFFFEB0E, 
    0x000000B5, 0x00001E7C, 0xFFFFE1D0, 0xFFFFEB5B, 0xFFFFF17C, 0xFFFFD7B8, 0xFFFFCC79, 0xFFFFC605, 
    0x00002C8F, 0x00001C15, 0xFFFFEB5A, 0x000005CB, 0xFFFFF170, 0xFFFFF501, 0xFFFFDC84, 0xFFFFF2BA, 
    0x00000BFB, 0xFFFFED04, 0xFFFFEC4E, 0xFFFFDF2C, 0xFFFFE413, 0x000003A2, 0xFFFFED74, 0x00002815, 
    0xFFFFF24D, 0x0000125F, 0x000003B7, 0xFFFFE6AB, 0x00001877, 0x0000099B, 0xFFFFE8CF, 0xFFFFDF53, 
    0xFFFFF54C, 0x00001138, 0xFFFFFAD8, 0x00001E3E, 0x00002152, 0xFFFFF98D, 0x000017AC, 0x000008E7, 
    0x00000B3E, 0x00003394, 0x000026ED, 0xFFFFEC5D, 0xFFFFF7DD, 0xFFFFD080, 0xFFFFDEF2, 0xFFFFE143, 
    0x00001CDE, 0x00002A3F, 0x00000EF2, 0x000019F8, 0x00001AF2, 0x0000265A, 0x00002B4F, 0xFFFFFC1C, 
    0xFFFFEEDB, 0x000018BD, 0xFFFFEFEB, 0xFFFFE3C3, 0x0000105D, 0x00002065, 0x00001606, 0xFFFFDA0E, 
    0xFFFFDB71, 0x00002220, 0x000008E6, 0xFFFFF366, 0x00001E1E, 0xFFFFF750, 0x00000310, 0x00002550, 
    0x00002E87, 0x000020D4, 0xFFFFEBFD, 0xFFFFEC1D, 0x00001BEA, 0x00000BD9, 0x0000095E, 0x00000EF2, 
    0x00001D4D, 0x00002288, 0xFFFFF1E3, 0x00001877, 0x00000E80, 0x000006A9, 0x0000037A, 0x000010B3, 
    0xFFFFF051, 0xFFFFD534, 0xFFFFE59E, 0x00001309, 0x00000E28, 0x00001A3C, 0x00001E47, 0xFFFFFFB4, 
    0xFFFFEB7F, 0xFFFFE7E2, 0xFFFFFCFC, 0xFFFFCF09, 0xFFFFF551, 0x000015D4, 0xFFFFF27D, 0x000000CC, 
    0xFFFFE36D, 0xFFFFF5C3, 0xFFFFF8CD, 0xFFFFF74C, 0x00002DFF, 0xFFFFFFBB, 0x0000056B, 0x000006EC, 
    0xFFFFFA61, 0xFFFFDEBB, 0xFFFFEF25, 0xFFFFCA2C, 0xFFFFBB05, 0xFFFFDC47, 0xFFFFFCC5, 0x000009B2, 
    0x000001B2, 0xFFFFEA71, 0xFFFFEF44, 0xFFFFE34B, 0xFFFFE851, 0xFFFFF95B, 0xFFFFF3F9, 0xFFFFDB1C, 
    0x00000504, 0x00001AFE, 0x000007FA, 0xFFFFF510, 0x000020E5, 0x00001F45, 0xFFFFE857, 0xFFFFE827, 
    0xFFFFC708, 0x00000097, 0x00001D17, 0x000008A5, 0x00003371, 0x00001FF6, 0x00000286, 0xFFFFF3AA, 
    0x0000013C, 0xFFFFF008, 0x00000804, 0x000019D7, 0x00000AEF, 0x00002B03, 0xFFFFFD2E, 0x00002145, 
    0x00000CC7, 0x000012C6, 0x00000DDB, 0x00000626, 0x0000066E, 0x00001E18, 0xFFFFFB1D, 0x000031B4, 
    0x000019C7, 0x000012E9, 0x00002AC2, 0xFFFFF305, 0xFFFFE76E, 0xFFFFFB16, 0x000018E4, 0xFFFFEA34, 
    0x000046EF, 0x00004AD1, 0x00003319, 0x00001DC7, 0x00002C09, 0xFFFFDE65, 0xFFFFC5E3, 0xFFFFF44E, 
    0xFFFFF929, 0xFFFFDD48, 0x00001B3D, 0x000026FA, 0x00000939, 0x00000804, 0x00001C40, 0xFFFFE12D, 
    0x00001A18, 0x00000EDF, 0x000000AC, 0x00000538, 0x00000BEB, 0x0000125E, 0x0000060A, 0x00000E21, 
    0xFFFFEED3, 0xFFFFF801, 0x00000C1E, 0xFFFFD2EB, 0xFFFFD95B, 0xFFFFC8F3, 0x0000104D, 0x000018F0, 
    0x00002009, 0xFFFFF494, 0xFFFFF16C, 0xFFFFD8DE, 0xFFFFD951, 0x000015EA, 0xFFFFEF11, 0x00000558, 
    0xFFFFE5C5, 0x0000049D, 0xFFFFF420, 0x00001B18, 0xFFFFFD54, 0xFFFFEEBE, 0xFFFFED97, 0x000006C5, 
    0x0000033D, 0x00001E33, 0xFFFFF7D2, 0xFFFFF522, 0x00000D78, 0x00001486, 0x000025B0, 0x000008FA, 
    0xFFFFEEE4, 0xFFFFEBC9, 0x00002B60, 0x00001086, 0x00000498, 0x000023E6, 0xFFFFF494, 0x00000F58, 
    0xFFFFF2AF, 0x00000BB7, 0x00001067, 0x00001B85, 0x000021B8, 0x00001EBB, 0xFFFFCEC4, 0x00000AA6, 
    0xFFFFED7E, 0xFFFFD9DA, 0xFFFFF268, 0x0000200A, 0x000019C4, 0x0000053C, 0x00002D74, 0x00000DE6, 
    0xFFFFF680, 0xFFFFD790, 0xFFFFF0F3, 0xFFFFE22D, 0xFFFFECCB, 0x000003FA, 0x00001E16, 0x00002A80, 
    0x000023DE, 0xFFFFFD9C, 0xFFFFFFFD, 0x00002943, 0x00000E47, 0x000000C9, 0x0000133B, 0xFFFFEC53, 
    0xFFFFD746, 0x00000E8F, 0x000004D3, 0xFFFFFCD0, 0xFFFFFF66, 0xFFFFF5D0, 0x00002176, 0x000003BB, 
    0xFFFFFD5E, 0xFFFFE2C1, 0x000015B3, 0x000005D2, 0x00000E37, 0xFFFFE0F2, 0xFFFFE465, 0xFFFFE840, 
    0x0000140F, 0xFFFFE7F8, 0x00000C27, 0x00001379, 0x000029B2, 0xFFFFF0D2, 0x0000137F, 0xFFFFDCC9, 
    0x000015DC, 0xFFFFFF86, 0x00001B69, 0xFFFFFAA7, 0xFFFFD5E8, 0xFFFFFF39, 0xFFFFFCD5, 0x00000740, 
    0x00001C83, 0xFFFFDBF1, 0xFFFFDAF3, 0xFFFFE79C, 0xFFFFDA3A, 0xFFFFBF34, 0xFFFFEB4D, 0xFFFFF1FD, 
    0xFFFFF596, 0xFFFFEC38, 0xFFFFDF2F, 0xFFFFE6F3, 0xFFFFFF7B, 0xFFFFCABB, 0xFFFFE2FA, 0x000004D8, 
    0x0000100A, 0xFFFFCFF7, 0xFFFFD7A7, 0xFFFFD60B, 0x000012B7, 0x00001640, 0x00000854, 0xFFFFECAC, 
    0x00001019, 0x00000DCC, 0x000018F1, 0xFFFFF90B, 0xFFFFCE21, 0xFFFFD1AF, 0x00000CB3, 0x00001616, 
    0xFFFFDABE, 0xFFFFDBCA, 0xFFFFCBF1, 0xFFFFDA29, 0xFFFFE1CB, 0x00000051, 0xFFFFDC9C, 0xFFFFE6F3, 
    0x00001975, 0xFFFFCF10, 0xFFFFF7B5, 0xFFFFEF5F, 0xFFFFF946, 0xFFFFEC72, 0x00000118, 0x00000BB6, 
    0x00000544, 0x00001877, 0x00001EF1, 0xFFFFDC3E, 0x00000E3F, 0x00000DAE, 0x000023A9, 0x00000052, 
    0x00000D8C, 0xFFFFC958, 0xFFFFE2C2, 0xFFFFDFC1, 0xFFFFF274, 0xFFFFEDB1, 0x00000FBA, 0xFFFFF15A, 
    0xFFFFE848, 0x000027A7, 0x00002928, 0xFFFFFE85, 0x00001D88, 0xFFFFFE29, 0xFFFFFDA7, 0x00002200, 
    0xFFFFE388, 0xFFFFC8B0, 0xFFFFCC69, 0xFFFFD4D6, 0xFFFFED61, 0x00001BCC, 0xFFFFFD60, 0xFFFFF4E3, 
    0x00002AC3, 0x00001472, 0x00000644, 0x00003147, 0x00002275, 0xFFFFFE20, 0xFFFFF902, 0x000002C8, 
    0xFFFFF274, 0x000008DC, 0xFFFFEB88, 0x00000A18, 0x000015D3, 0xFFFFE396, 0xFFFFE2F6, 0xFFFFE76D, 
    0x000006C9, 0x00003C35, 0x000017CD, 0x00003BD9, 0x000006A8, 0x00001814, 0xFFFFDFCA, 0x00000FE1, 
    0xFFFFF07B, 0xFFFFEB94, 0x00000E5F, 0xFFFFDF9E, 0xFFFFDE15, 0xFFFFEC60, 0xFFFFEEF0, 0xFFFFE6B3, 
    0xFFFFEF69, 0xFFFFEA23, 0xFFFFE630, 0xFFFFDE68, 0x00002098, 0xFFFFFDEC, 0xFFFFE5A8, 0xFFFFEC79, 
    0xFFFFEAC8, 0xFFFFEA13, 0x00003FDD, 0x00002B7E, 0x00001B06, 0x0000102F, 0x00001AFB, 0x00001805, 
    0x0000156E, 0x0000136E, 0x0000198B, 0xFFFFE221, 0xFFFFE139, 0x00000049, 0xFFFFF8BD, 0xFFFFF33C, 
    0xFFFFDFFC, 0xFFFFD272, 0xFFFFD00B, 0xFFFFE72E, 0xFFFFDEF5, 0xFFFFEDD4, 0x00000128, 0x00001AF7, 
    0x000018FA, 0x0000262A, 0x00001862, 0x00000D20, 0x000018EA, 0x00000B64, 0x00000FEB, 0x00003061, 
    0xFFFFF1AE, 0xFFFFEC19, 0xFFFFF842, 0x000015AD, 0x00000F25, 0xFFFFC563, 0xFFFFF702, 0xFFFFF3C9, 
    0xFFFFEE9F, 0x000000DA, 0xFFFFE288, 0xFFFFCF6A, 0xFFFFD822, 0xFFFFF020, 0x00002C5F, 0x000020EC, 
    0x0000043D, 0xFFFFDACF, 0xFFFFD83C, 0xFFFFE98B, 0x00000834, 0x00001548, 0xFFFFE99C, 0xFFFFE85C, 
    0xFFFFDB97, 0x00000B37, 0x000007E9, 0x00001104, 0xFFFFE1AC, 0xFFFFD66F, 0x0000203F, 0x00000789, 
    0x000025AB, 0x00000138, 0x00000143, 0x000006E5, 0xFFFFF553, 0x00001F28, 0x00002900, 0xFFFFEDE3, 
    0xFFFFFBBD, 0x000019B0, 0xFFFFEA53, 0xFFFFDBDF, 0xFFFFFC33, 0x000016B0, 0x0000215E, 0xFFFFEB8C, 
    0xFFFFFE69, 0x000001F3, 0xFFFFE813, 0x0000180B, 0xFFFFEF0F, 0xFFFFD2CE, 0xFFFFD396, 0x0000014C, 
    0xFFFFD39D, 0xFFFFEC97, 0xFFFFDB4B, 0xFFFFF1FD, 0x00000276, 0xFFFFF223, 0xFFFFF8FC, 0xFFFFF99C, 
    0xFFFFEB7A, 0xFFFFF67D, 0x0000068E, 0x00002608, 0x00001F5B, 0x000012DE, 0x00001A3B, 0x000003EF, 
    0x00002F07, 0xFFFFFF24, 0x0000317D, 0x00002496, 0x00000FF7, 0x00000C6E, 0x000005D1, 0x0000080C, 
    0x00000ED0, 0xFFFFF357, 0xFFFFD55A, 0xFFFFF143, 0x00000479, 0x000007FA, 0xFFFFEA5D, 0x00001A2D, 
    0xFFFFF4A9, 0xFFFFF697, 0xFFFFFFAF, 0x00001169, 0xFFFFE772, 0xFFFFF617, 0x0000103A, 0x00001287, 
    0xFFFFEB57, 0xFFFFF3E3, 0xFFFFECB4, 0x00001E57, 0x0000195F, 0xFFFFF6EA, 0x0000013B, 0x00000173, 
    0xFFFFF3C0, 0x00000437, 0xFFFFDBD6, 0xFFFFD86B, 0xFFFFDFC5, 0x000000E7, 0xFFFFF1BF, 0x00000627, 
    0xFFFFEEFC, 0xFFFFF6C9, 0xFFFFDFB1, 0x000021D7, 0x00000797, 0x00000B85, 0x000008E6, 0xFFFFFE8B, 
    0xFFFFC542, 0xFFFFE451, 0xFFFFE99D, 0xFFFFDE0F, 0xFFFFFC21, 0x00002459, 0xFFFFFF7F, 0x00002A8F, 
    0x000005C5, 0x00002316, 0x00000580, 0xFFFFD4A3, 0xFFFFDEE7, 0xFFFFEB6B, 0xFFFFE8D4, 0xFFFFFC5A, 
    0xFFFFDE3A, 0x00000B5A, 0xFFFFEC3C, 0x00000D1B, 0x0000362C, 0x000025F1, 0xFFFFEC00, 0xFFFFED2A, 
    0x00002113, 0xFFFFF4B7, 0xFFFFF187, 0xFFFFF3DD, 0xFFFFDE77, 0xFFFFDEF9, 0x000009AA, 0x000025BC, 
    0xFFFFEA9D, 0xFFFFF874, 0xFFFFF552, 0x000000C0, 0xFFFFEC21, 0xFFFFE66F, 0xFFFFEFAE, 0x00001D03, 
    0x00001AC4, 0x00001838, 0xFFFFF3F5, 0x000002FD, 0xFFFFF9C5, 0xFFFFFEFC, 0xFFFFF94E, 0x00000121, 
    0xFFFFE994, 0xFFFFF5EF, 0x00000275, 0x00000896, 0xFFFFF849, 0xFFFFF637, 0x0000092F, 0x000021B7, 
    0x00002300, 0x000016D0, 0xFFFFE821, 0x00001382, 0xFFFFEDD2, 0x00000E55, 0xFFFFE9BC, 0x0000028F, 
    0xFFFFEBCF, 0x00000DE5, 0x00000CAC, 0x000016F0, 0x00000E84, 0xFFFFE868, 0x000004C9, 0xFFFFDCA3, 
    0x00000D84, 0xFFFFCE6A, 0xFFFFD7E2, 0xFFFFE385, 0xFFFFF3B6, 0xFFFFFEA8, 0xFFFFF3CA, 0xFFFFD018, 
    0x000001BD, 0xFFFFF42C, 0x000022E9, 0xFFFFFB2B, 0xFFFFEF9C, 0xFFFFFEAF, 0xFFFFF120, 0x000013E1, 
    0xFFFFF9C0, 0x00001244, 0xFFFFCB8E, 0xFFFFEBF8, 0xFFFFD4A9, 0xFFFFD49C, 0xFFFFF747, 0x00000B0B, 
    0x00000338, 0xFFFFF8C6, 0x00000358, 0xFFFFDFC0, 0x00002449, 0x0000271D, 0xFFFFE684, 0x00001BC7, 
    0xFFFFE3B3, 0x00001F89, 0xFFFFEF45, 0x00001BD2, 0x000020CD, 0x00003630, 0xFFFFFF7F, 0x000002D0, 
    0x00003BF4, 0x00001796, 0x0000352B, 0x00000CAF, 0x000014CA, 0x0000169E, 0x000000F2, 0x0000047E, 
    0xFFFFECB5, 0xFFFFEE13, 0x0000052B, 0xFFFFEC41, 0xFFFFEF00, 0x000007F1, 0xFFFFF946, 0xFFFFED36, 
    0x00000B4F, 0xFFFFFF44, 0x00003BB6, 0x00000E4A, 0xFFFFFF7D, 0xFFFFF9A0, 0xFFFFE9B5, 0x00002E5A, 
    0xFFFFFB60, 0xFFFFF7D1, 0xFFFFE670, 0x000008DE, 0x000023BD, 0x0000021D, 0x00001B5E, 0xFFFFF4CB, 
    0xFFFFFDAB, 0xFFFFC846, 0xFFFFDD6C, 0x000002C6, 0xFFFFE62F, 0xFFFFDC0E, 0xFFFFF67B, 0xFFFFCE2C, 
    0xFFFFCD45, 0xFFFFDFD0, 0xFFFFE516, 0x00000923, 0x000016DA, 0x00001539, 0x000009C1, 0x000014C3, 
    0x0000199E, 0x00001709, 0x00002F7E, 0x000021E7, 0xFFFFEB4A, 0x0000203D, 0x00001BDC, 0x000019E7, 
    0x00002C1E, 0x00001743, 0xFFFFEBA6, 0xFFFFE9D8, 0xFFFFDF65, 0x000023B1, 0x000021D3, 0xFFFFF67B, 
    0xFFFFD853, 0xFFFFE02B, 0xFFFFEBB0, 0x0000057A, 0xFFFFEF16, 0xFFFFF4C8, 0xFFFFE63A, 0xFFFFED37, 
    0xFFFFE4AB, 0xFFFFEE01, 0xFFFFDEE7, 0xFFFFDEE9, 0x00001B57, 0x00001C1C, 0xFFFFEF29, 0x00000696, 
    0xFFFFD595, 0xFFFFFC54, 0x00002224, 0x00001E0D, 0xFFFFFB29, 0xFFFFD8FF, 0xFFFFF39C, 0xFFFFFC6F, 
    0xFFFFDA1C, 0xFFFFE786, 0x00000140, 0xFFFFE2BE, 0xFFFFD6B2, 0x00000ABE, 0x00001DDB, 0x00000E07, 
    0x000012F0, 0x00001E9D, 0x000010E0, 0x00000273, 0x00000F7A, 0x00000404, 0xFFFFE890, 0xFFFFB4C5, 
    0xFFFFE3D6, 0xFFFFBC85, 0xFFFFE040, 0xFFFFEA1F, 0xFFFFF4BD, 0xFFFFE30A, 0xFFFFE9EB, 0x000008D9, 
    0xFFFFDFCE, 0xFFFFE154, 0x00001BE6, 0x000002E6, 0xFFFFE46B, 0xFFFFFA0B, 0xFFFFF395, 0xFFFFED80, 
    0x0000051C, 0x0000115E, 0x00000457, 0xFFFFECF6, 0x00001D8E, 0x00000310, 0x0000186F, 0xFFFFEE39, 
    0x00002872, 0xFFFFF981, 0xFFFFF60E, 0x0000001D, 0x0000211C, 0xFFFFF2A6, 0xFFFFDA4A, 0xFFFFE3E4, 
    0xFFFFFAFD, 0x0000381E, 0x00000B82, 0x00001124, 0x00001FD9, 0xFFFFE7B4, 0x000004AC, 0xFFFFE37D, 
    0x00000317, 0x000019EF, 0x00001C3C, 0x000020E5, 0x000008F3, 0x00002B32, 0x00000CA8, 0x000023E1, 
    0x00003244, 0xFFFFF969, 0x00000E4E, 0x00001B4C, 0xFFFFF1E5, 0xFFFFF007, 0xFFFFF66D, 0xFFFFEA80, 
    0xFFFFEA2C, 0x00000E35, 0xFFFFDFAE, 0x00000F45, 0x000021A1, 0xFFFFFAB3, 0x00000C91, 0xFFFFE388, 
    0x00000924, 0xFFFFE335, 0x000023F7, 0xFFFFFEE8, 0x00001E47, 0xFFFFDA6A, 0x00001454, 0x00001DB8, 
    0xFFFFEC6E, 0xFFFFEEB9, 0x0000209A, 0x00000E5D, 0xFFFFE8FA, 0x00000FCF, 0x00000B65, 0x00001373, 
    0x00002376, 0xFFFFDFC5, 0x000003C9, 0xFFFFFA54, 0xFFFFF736, 0xFFFFD3B8, 0xFFFFFF2E, 0xFFFFD5D2, 
    0xFFFFD23D, 0xFFFFDC45, 0xFFFFD449, 0x00001810, 0x00002798, 0xFFFFED40, 0x00001C3F, 0xFFFFD6D7, 
    0xFFFFE60F, 0x00001E83, 0xFFFFF824, 0xFFFFEDBF, 0x00001B64, 0xFFFFE7A6, 0xFFFFFD6D, 0xFFFFBF97, 
    0x00000619, 0x00000F96, 0x00000557, 0xFFFFC689, 0xFFFFBC29, 0xFFFFEDEC, 0x000025F5, 0x00000024, 
    0xFFFFE128, 0xFFFFFE9E, 0x00001655, 0x00001494, 0x000022BC, 0x00001307, 0xFFFFEC54, 0xFFFFE3DD, 
    0xFFFFC57F, 0x00001766, 0xFFFFFE21, 0xFFFFE322, 0xFFFFECDC, 0xFFFFF2EF, 0xFFFFE4C3, 0x00001B61, 
    0x0000045E, 0x0000039C, 0xFFFFDDB8, 0xFFFFD866, 0x00000888, 0xFFFFE4E8, 0x00000799, 0xFFFFF217, 
    0x000000AE, 0x000002C3, 0x000006C0, 0xFFFFF015, 0xFFFFFA36, 0x00000DCC, 0xFFFFECF9, 0x0000195B, 
    0xFFFFD809, 0xFFFFFF78, 0xFFFFE832, 0x0000118D, 0x0000200E, 0xFFFFFA74, 0xFFFFF900, 0x0000169B, 
    0xFFFFF12D, 0xFFFFF788, 0xFFFFF9C4, 0x00000D18, 0xFFFFC9EC, 0xFFFFF80C, 0xFFFFDEB8, 0xFFFFEE12, 
    0xFFFFD58F, 0xFFFFF986, 0xFFFFFD4D, 0xFFFFF724, 0x00002772, 0x00001D80, 0x000004C1, 0xFFFFE208, 
    0x00000F14, 0x00000395, 0xFFFFE66B, 0x000023E3, 0xFFFFD4A1, 0x0000288A, 0x00000FBF, 0xFFFFF1C4, 
    0x00002602, 0xFFFFE803, 0x000013A2, 0xFFFFF560, 0x0000114D, 0xFFFFEB5A, 0x00001494, 0xFFFFEDD2, 
    0x00001150, 0x00000B34, 0xFFFFF5CC, 0xFFFFFB96, 0xFFFFEBEB, 0x000004A7, 0xFFFFF3B2, 0x00001BEE, 
    0x00002D1D, 0x000017A3, 0x000001EF, 0xFFFFEBA9, 0xFFFFD8F3, 0xFFFFDD5B, 0xFFFFE25C, 0x000014B2, 
    0x00001058, 0x00000AF0, 0xFFFFE6D4, 0xFFFFEDEB, 0xFFFFDAFD, 0x00001551, 0x00001D6B, 0x000017C4, 
    0xFFFFF64C, 0xFFFFFA06, 0x00003344, 0x000015E4, 0x00000616, 0x0000062C, 0xFFFFF9A6, 0xFFFFFF31, 
    0x00000BB1, 0xFFFFE967, 0x00000477, 0x000017A4, 0x00001682, 0xFFFFD627, 0x000004E2, 0x000002D3, 
    0x0000054D, 0xFFFFF48A, 0x0000244B, 0x00000B07, 0x000008DA, 0xFFFFEECE, 0xFFFFF887, 0x00001BA3, 
    0x00001D35, 0x00001D48, 0x000011C5, 0xFFFFF185, 0xFFFFFCC7, 0x000036C5, 0x000031FC, 0xFFFFE9AE, 
    0x0000063A, 0x000019F1, 0x000013A0, 0xFFFFF32F, 0x0000104B, 0xFFFFF652, 0x0000103C, 0xFFFFE852, 
    0x000009E3, 0x00003EB7, 0xFFFFF276, 0x000025E7, 0xFFFFF8A5, 0xFFFFECF8, 0x000019CA, 0xFFFFFA64, 
    0x00001CCC, 0xFFFFF199, 0xFFFFD63B, 0xFFFFEFB7, 0xFFFFF24B, 0x00001C53, 0xFFFFFF10, 0x00001FB3, 
    0xFFFFDD41, 0x000007ED, 0xFFFFF550, 0xFFFFE34D, 0xFFFFEEEA, 0x00001998, 0x0000043A, 0x00002465, 
    0xFFFFFC4B, 0xFFFFFE1A, 0x00002AF3, 0x0000242D, 0xFFFFEC96, 0x00001E91, 0x00001148, 0xFFFFE568, 
    0xFFFFF809, 0xFFFFCF79, 0xFFFFEEF6, 0xFFFFF589, 0xFFFFD940, 0xFFFFEA7C, 0xFFFFD215, 0xFFFFDF45, 
    0x00002D8C, 0xFFFFFFDF, 0xFFFFD3C9, 0xFFFFD9B4, 0xFFFFD52E, 0x00001EA7, 0xFFFFF600, 0xFFFFECF8, 
    0xFFFFD558, 0xFFFFFB46, 0xFFFFEC71, 0x000023FE, 0xFFFFF3E1, 0x00001E28, 0x000003E7, 0x00001671, 
    0x000002A1, 0x000024B7, 0xFFFFEACD, 0xFFFFF3E0, 0xFFFFD791, 0x0000119D, 0x00001130, 0xFFFFF4F7, 
    0xFFFFEECD, 0xFFFFFFBF, 0x00001BFE, 0x0000372D, 0xFFFFF4B2, 0xFFFFFD9A, 0xFFFFDE77, 0x00001EB3, 
    0x000028C6, 0x000015E0, 0xFFFFE160, 0xFFFFC8D3, 0xFFFFE1F9, 0xFFFFF4CD, 0xFFFFF8F0, 0xFFFFED37, 
    0x00000C1A, 0xFFFFC89F, 0xFFFFD230, 0xFFFFCD63, 0xFFFFFFDB, 0x00002E7D, 0x00001A25, 0x00002C92, 
    0x000019EC, 0xFFFFFC7B, 0x000012C9, 0x000001CB, 0x000019D0, 0xFFFFE82D, 0x00002069, 0x00000C01, 
    0xFFFFE8D1, 0xFFFFD9D9, 0x000022D7, 0x00002ED1, 0x00002B36, 0xFFFFE01F, 0x00000ABA, 0xFFFFDD69, 
    0xFFFFFDBF, 0x0000030F, 0x00002851, 0x00001AFF, 0x00002CB2, 0x000036BD, 0x00001FD8, 0xFFFFCEF4, 
    0xFFFFC76B, 0xFFFFEE05, 0xFFFFE6CA, 0xFFFFE72F, 0xFFFFF47B, 0xFFFFE64F, 0x00001722, 0xFFFFE599, 
    0xFFFFF402, 0x000008BB, 0x0000103E, 0xFFFFDB0E, 0xFFFFD292, 0xFFFFD2BD, 0xFFFFFA4D, 0x00000E25, 
    0x0000263D, 0xFFFFCA1E, 0xFFFFD038, 0xFFFFCF6E, 0xFFFFD6CF, 0xFFFFE9C7, 0xFFFFEE59, 0xFFFFCC02, 
    0xFFFFDFBA, 0x0000095B, 0x0000002C, 0xFFFFF60F, 0xFFFFDEC0, 0x00000A87, 0x0000155D, 0x000013A6, 
    0x00001217, 0x0000023C, 0xFFFFE897, 0xFFFFD7B7, 0xFFFFEE0C, 0xFFFFF704, 0x00000C0C, 0xFFFFDCBB, 
    0xFFFFD168, 0x000002B9, 0xFFFFF61D, 0x000012F8, 0xFFFFE06C, 0xFFFFD29D, 0xFFFFE675, 0xFFFFE708, 
    0xFFFFF82E, 0xFFFFE4C3, 0x000005EE, 0xFFFFED98, 0xFFFFFF20, 0xFFFFEE5F, 0xFFFFEB1D, 0x00000838, 
    0x00000736, 0x00001266, 0x00001046, 0x00001255, 0xFFFFEAF3, 0x00000820, 0x00002A15, 0x00000E56, 
    0xFFFFEA18, 0xFFFFE621, 0xFFFFDA0A, 0x000000A2, 0xFFFFFA24, 0x000029DD, 0x00002153, 0x0000395C, 
    0x00000EC9, 0x00003944, 0xFFFFF574, 0x00002606, 0x00001F21, 0x000013E2, 0x00000570, 0x00000744, 
    0x0000118A, 0xFFFFF681, 0xFFFFF8C7, 0x00000D4E, 0x00002614, 0x00000C68, 0x000014B0, 0x00001809, 
    0xFFFFF9E0, 0xFFFFC734, 0xFFFFCF1D, 0xFFFFE7C5, 0xFFFFE40F, 0xFFFFFBA9, 0xFFFFF520, 0xFFFFF1F3, 
    0xFFFFD6F6, 0xFFFFE673, 0x000014FD, 0xFFFFF632, 0x00000CB8, 0x000016F0, 0x00002FC6, 0xFFFFFECC, 
    0xFFFFF1BE, 0x000004DE, 0x00000C33, 0xFFFFEF0D, 0x00000950, 0x00001D93, 0x00001EA9, 0x000023AA, 
    0x0000101E, 0xFFFFDCB3, 0x00000A7E, 0x00000F16, 0x00000827, 0xFFFFEE02, 0x000003EE, 0x00000BEC, 
    0xFFFFE5F1, 0x000003BC, 0x000016B8, 0x0000228E, 0x000031E2, 0x0000171F, 0x00003543, 0x00000021, 
    0x000022F0, 0x000022F7, 0x000015DC, 0xFFFFFA85, 0xFFFFEED1, 0xFFFFDD73, 0x000004AC, 0xFFFFF6EA, 
    0xFFFFFDAC, 0xFFFFDB17, 0x00000278, 0xFFFFE360, 0xFFFFE9EA, 0xFFFFF62B, 0x00001384, 0x00003556, 
    0xFFFFEAC7, 0xFFFFDD06, 0xFFFFD8E7, 0x00000BE3, 0x000028BC, 0x0000157C, 0x00000AA5, 0x0000280B, 
    0x000028D5, 0x000027E3, 0x0000097B, 0xFFFFFE36, 0x0000080C, 0x00000C51, 0x00002913, 0x00001E76, 
    0x000006B6, 0xFFFFE334, 0xFFFFDEA6, 0x0000170D, 0x000025C2, 0xFFFFDFA9, 0xFFFFF5B1, 0xFFFFFF78, 
    0x00001C8C, 0xFFFFDA6A, 0xFFFFE9B7, 0xFFFFF4C3, 0x0000162A, 0x0000054F, 0xFFFFFCB3, 0x00000688, 
    0x00002AA7, 0x000010F1, 0xFFFFE1B2, 0x0000272E, 0xFFFFEB9F, 0xFFFFD55A, 0x00000A7B, 0x00001DED, 
    0xFFFFE3F3, 0xFFFFD980, 0xFFFFC979, 0xFFFFDAC2, 0xFFFFEFE7, 0x000015C0, 0x00001B0B, 0x0000206E, 
    0x0000153F, 0x00003ED1, 0xFFFFD416, 0xFFFFF953, 0x000007F8, 0xFFFFE687, 0x00000BDC, 0x000015E4, 
    0xFFFFEF0E, 0x000003D2, 0xFFFFF6BB, 0xFFFFCE75, 0xFFFFEEE6, 0xFFFFECF8, 0xFFFFEBA9, 0x00001B67, 
    0x00000A2E, 0x0000197E, 0xFFFFF8E9, 0xFFFFF8F2, 0xFFFFF550, 0x000034DC, 0x0000257C, 0x00002444, 
    0xFFFFEA2F, 0x00002090, 0x0000091E, 0xFFFFCE19, 0xFFFFE634, 0xFFFFBC21, 0xFFFFCF3D, 0xFFFFD17B, 
    0x00001E85, 0x00001FB3, 0x00002225, 0x00003353, 0x00000374, 0x00000E6C, 0x000010AC, 0x00001008, 
    0x00001820, 0xFFFFF770, 0xFFFFD514, 0x000000ED, 0x00000EF4, 0xFFFFED0F, 0x000019C6, 0xFFFFD67B, 
    0xFFFFBD3F, 0xFFFFC879, 0xFFFFB54A, 0xFFFFBB78, 0xFFFFF26C, 0x0000102E, 0x00001368, 0xFFFFFC1B, 
    0x0000004A, 0x0000187C, 0x00002239, 0x000026EF, 0x0000296F, 0x000008CC, 0x0000091D, 0x0000080C, 
    0xFFFFE319, 0xFFFFFEBC, 0xFFFFE2D3, 0xFFFFEB4B, 0x00002534, 0x00002B38, 0x000028FD, 0x00001C91, 
    0xFFFFE147, 0xFFFFFF8B, 0x00001765, 0x00000E6D, 0x00002E7C, 0xFFFFC83E, 0xFFFFD676, 0xFFFFE1A8, 
    0x000006CC, 0x00000E0E, 0xFFFFF6AD, 0x0000260D, 0x00001CE1, 0x00003571, 0x00003860, 0xFFFFF997, 
    0xFFFFFFF6, 0x00000C9A, 0xFFFFED0B, 0xFFFFCA6D, 0xFFFFF4D3, 0xFFFFEF6E, 0xFFFFE44A, 0x0000204F, 
    0xFFFFE0D0, 0xFFFFFA86, 0xFFFFF150, 0x000000AE, 0x00001E8F, 0xFFFFEDF8, 0x000018DC, 0x00001B82, 
    0x00001690, 0xFFFFE981, 0x00000BA3, 0x000023B3, 0x00000155, 0xFFFFF62C, 0x00001B62, 0x000022B2, 
    0xFFFFF713, 0x00000BE4, 0x00000284, 0xFFFFDD4D, 0xFFFFE7CC, 0x00000AD4, 0xFFFFFD92, 0xFFFFEC37, 
    0x00001105, 0xFFFFFBF0, 0x000004E9, 0xFFFFC631, 0xFFFFD903, 0xFFFFE00B, 0xFFFFDFFC, 0x0000271D, 
    0x00001DE2, 0xFFFFF539, 0xFFFFF70F, 0xFFFFD44B, 0xFFFFE7B8, 0x00001260, 0xFFFFED58, 0xFFFFEDA5, 
    0x000000CE, 0x00001F7E, 0xFFFFFB87, 0xFFFFF740, 0x00000319, 0x0000227D, 0x000020BD, 0x00000E51, 
    0x00000EFB, 0x000026C1, 0xFFFFE974, 0x00001DF7, 0xFFFFEFD4, 0x00001A3A, 0xFFFFF51E, 0xFFFFF7BB, 
    0x00000CD5, 0x00001498, 0xFFFFF2FF, 0xFFFFF8A4, 0x00001CDD, 0x000028BF, 0x00001944, 0x00000BCD, 
    0x00001BEC, 0x00003FEE, 0xFFFFF838, 0xFFFFD8B8, 0xFFFFF5C6, 0xFFFFFF85, 0xFFFFF8D9, 0xFFFFEED2, 
    0x0000202A, 0x000007C2, 0xFFFFE306, 0xFFFFE679, 0x00001668, 0xFFFFDE93, 0xFFFFDE81, 0xFFFFFF8E, 
    0xFFFFFD5C, 0xFFFFEAF3, 0x000006D5, 0x000004A4, 0xFFFFE526, 0x00000758, 0x00000048, 0xFFFFF955, 
    0x00000581, 0xFFFFDF80, 0xFFFFF4E1, 0x00001CF6, 0xFFFFFB53, 0xFFFFFDB9, 0xFFFFECF2, 0x00001665, 
    0x00001978, 0xFFFFFF67, 0xFFFFED0F, 0xFFFFE874, 0xFFFFE3DC, 0x00000C54, 0x0000117B, 0xFFFFF64B, 
    0x0000269C, 0xFFFFEF2D, 0x00000643, 0x00001EB0, 0x000010E8, 0x0000087F, 0xFFFFF03F, 0x00001EB0, 
    0x00001BE4, 0x000029E2, 0x000027C8, 0x0000230B, 0x00000ABC, 0x00000404, 0x00000F1A, 0x00000E61, 
    0x00000516, 0x00000E76, 0x000039B9, 0x0000176A, 0x00000EE8, 0x000033B8, 0xFFFFE64C, 0xFFFFE92F, 
    0xFFFFF522, 0xFFFFFBC7, 0xFFFFE73F, 0xFFFFEA4B, 0x00000F78, 0xFFFFFD65, 0x000013F5, 0x000004D6, 
    0x000006AD, 0x00002195, 0xFFFFED87, 0xFFFFFCCA, 0x00001E68, 0xFFFFFC00, 0xFFFFF8A8, 0xFFFFEE04, 
    0xFFFFF951, 0xFFFFFF97, 0x00000C5A, 0xFFFFFE6F, 0xFFFFEC1E, 0xFFFFFFB9, 0xFFFFD7AD, 0x000004AF, 
    0x0000121E, 0xFFFFFC2B, 0xFFFFE98E, 0xFFFFC973, 0xFFFFFF47, 0xFFFFEE89, 0xFFFFE742, 0xFFFFE3C7, 
    0xFFFFFD2E, 0xFFFFEC84, 0xFFFFDFD1, 0xFFFFE312, 0xFFFFE254, 0xFFFFF50D, 0x000020F3, 0xFFFFFE4C, 
    0xFFFFFF9D, 0x00000F4A, 0xFFFFEC6B, 0x0000208D, 0x000018E5, 0xFFFFEB2E, 0x00000D22, 0x00000D6B, 
    0x000008F4, 0xFFFFDC6E, 0xFFFFEC7E, 0xFFFFF8C7, 0xFFFFD4A0, 0xFFFFE81C, 0x0000056E, 0x00000304, 
    0xFFFFFEFA, 0xFFFFBE24, 0x000022A2, 0x000032A5, 0x00002048, 0xFFFFF6D9, 0x000001C8, 0xFFFFD495, 
    0x000004C2, 0xFFFFF24F, 0xFFFFF928, 0xFFFFD70C, 0xFFFFFE5E, 0xFFFFE5A3, 0xFFFFE22A, 0xFFFFDB38, 
    0xFFFFE364, 0xFFFFFB27, 0xFFFFE86B, 0xFFFFE3E1, 0xFFFFEEFB, 0xFFFFFCE1, 0x0000003D, 0xFFFFE1D3, 
    0x000009C6, 0x00001EC2, 0x00001AF5, 0x000012E8, 0xFFFFD895, 0x00001154, 0x00000AD3, 0xFFFFFC4F, 
    0xFFFFF8BF, 0x00002CFA, 0x00003F25, 0x000031C7, 0x00002ABC, 0xFFFFD3CA, 0xFFFFD4E2, 0xFFFFE022, 
    0xFFFFE83E, 0xFFFFF23F, 0xFFFFE6E8, 0xFFFFF639, 0x00001E19, 0x00000291, 0x00000FF0, 0x000001CF, 
    0xFFFFEED2, 0xFFFFF0C1, 0xFFFFEF14, 0x00000F44, 0x000007D5, 0x00001950, 0xFFFFEF13, 0x000001E7, 
    0x00000AD8, 0x000014C6, 0xFFFFDD19, 0xFFFFDA76, 0xFFFFD0AE, 0xFFFFAD8B, 0xFFFFFAC2, 0x000019F7, 
    0x000027C2, 0xFFFFF7AC, 0x00001977, 0x00000328, 0xFFFFC9A7, 0xFFFFFE56, 0x00002912, 0x0000224B, 
    0xFFFFE881, 0xFFFFE940, 0xFFFFCEEE, 0xFFFFDDDD, 0x00001CDA, 0x000016FB, 0x000024A6, 0xFFFFFF9A, 
    0x00000E2D, 0x00000696, 0xFFFFFAA1, 0x000007D0, 0x00000789, 0xFFFFFC1C, 0x000001D4, 0xFFFFF94A, 
    0xFFFFE673, 0x0000017F, 0x00001E96, 0x0000177E, 0xFFFFE43F, 0xFFFFE239, 0xFFFFFB4F, 0xFFFFC4CD, 
    0xFFFFBBF4, 0xFFFFFC7A, 0x0000282A, 0x000029E3, 0x00001217, 0x00000B06, 0x000017AC, 0x000008FD, 
    0xFFFFE660, 0xFFFFD591, 0x00000544, 0x00000E43, 0x00001A2B, 0xFFFFF781, 0x0000196B, 0xFFFFE339, 
    0x0000053B, 0xFFFFF4D2, 0xFFFFE0F1, 0x00001FA4, 0x00000311, 0xFFFFF63F, 0xFFFFF275, 0xFFFFE84E, 
    0x00000351, 0x00001F7F, 0x00001A1E, 0x000014AF, 0x00000633, 0x000018DF, 0x000031B1, 0x00003E61, 
    0xFFFFF021, 0x00003044, 0xFFFFF812, 0xFFFFF994, 0xFFFFEDC7, 0xFFFFDDD3, 0xFFFFFD92, 0xFFFFD12F, 
    0xFFFFE397, 0x000038C5, 0x000039FB, 0x00003778, 0x0000277D, 0x00000444, 0x00001B2A, 0x00001492, 
    0x00001A24, 0xFFFFE602, 0xFFFFE236, 0x000018AF, 0x000033EA, 0xFFFFFA84, 0x00001949, 0x00000032, 
    0x00000584, 0x00001F83, 0x00004368, 0x0000329F, 0x00001B5F, 0x00001448, 0x00003584, 0x00002A52, 
    0x00004B45, 0x00001F6A, 0x00002E5D, 0x00002CB8, 0xFFFFFB24, 0xFFFFF88C, 0xFFFFEE96, 0x00002CF2, 
    0x00003044, 0x00003948, 0x00004573, 0x00003592, 0x00002A51, 0x00002D63, 0x000019BA, 0x000004C0, 
    0x00001908, 0xFFFFFD16, 0x000002A2, 0xFFFFE66C, 0xFFFFFEE2, 0xFFFFEAB8, 0xFFFFF21F, 0x00000D70, 
    0xFFFFD645, 0xFFFFDEA5, 0x000000CA, 0xFFFFF9E9, 0xFFFFDCB8, 0x00000F43, 0x0000075C, 0xFFFFF776, 
    0xFFFFE748, 0xFFFFD930, 0xFFFFFB00, 0xFFFFE239, 0xFFFFEE93, 0x00001011, 0x0000040C, 0x00000613, 
    0xFFFFE592, 0x00000ADD, 0xFFFFEF7E, 0x0000041A, 0xFFFFF9AB, 0xFFFFF55F, 0x00001B62, 0xFFFFF6BA, 
    0x000012F9, 0xFFFFDCE1, 0xFFFFF943, 0xFFFFEACC, 0xFFFFDB51, 0xFFFFE0A3, 0xFFFFD663, 0x00001289, 
    0x00000771, 0xFFFFF141, 0xFFFFE064, 0xFFFFF6CD, 0x00000C2A, 0xFFFFDB98, 0xFFFFE2FA, 0x000007B0, 
    0xFFFFDB78, 0x000018C9, 0xFFFFEC71, 0xFFFFE856, 0xFFFFFC65, 0x00000339, 0x000020EA, 0x00000DF5, 
    0xFFFFDAB9, 0xFFFFE78C, 0xFFFFFEA6, 0xFFFFD949, 0xFFFFD81B, 0x0000149B, 0x00001AF0, 0x00000894, 
    0xFFFFF90C, 0xFFFFDB8E, 0xFFFFE0B7, 0xFFFFF85A, 0x00001316, 0x0000151D, 0xFFFFFA97, 0xFFFFEFAB, 
    0x0000214D, 0xFFFFF06D, 0x00000B6C, 0x00000066, 0xFFFFFDE1, 0x000018DF, 0x00002A8A, 0x00000BD8, 
    0x0000045A, 0xFFFFF834, 0x000014C4, 0x00001EA3, 0xFFFFEE2E, 0xFFFFF463, 0xFFFFF77D, 0x00001EAF, 
    0xFFFFFA9F, 0x000016AD, 0x00001097, 0x00001147, 0xFFFFF16C, 0x00000191, 0x00000522, 0x00000442, 
    0x00000687, 0xFFFFD211, 0xFFFFE1D9, 0xFFFFEC42, 0x00001CD4, 0x00002DA2, 0x0000313E, 0x0000003F, 
    0x00002792, 0x00001F85, 0x00001DE5, 0xFFFFFA95, 0xFFFFE694, 0xFFFFE082, 0xFFFFD45C, 0x00001C8E, 
    0x00001973, 0x00002230, 0x00003A89, 0x00000EC0, 0xFFFFFDB8, 0xFFFFDFA1, 0x00000850, 0xFFFFF0C4, 
    0xFFFFD53B, 0xFFFFD8D5, 0x00001220, 0x00001283, 0xFFFFFEAB, 0x00000B53, 0xFFFFF5BC, 0xFFFFF566, 
    0xFFFFF967, 0x00001494, 0x00001A20, 0x000002E5, 0x00000E3F, 0xFFFFEE0F, 0x0000051B, 0xFFFFF85D, 
    0xFFFFE517, 0xFFFFFD31, 0x00001CC5, 0x0000174D, 0xFFFFF061, 0x00002862, 0x00001F21, 0x00001E6E, 
    0xFFFFFECA, 0x00000558, 0x00001665, 0xFFFFEFB1, 0x00001CF2, 0x000010F2, 0xFFFFD7D9, 0xFFFFF026, 
    0xFFFFDCFF, 0x000016FE, 0x00001E82, 0x000015C6, 0xFFFFF9F5, 0x00000A21, 0x00001ADB, 0xFFFFF3FD, 
    0x000004B0, 0x00001D85, 0x00001D7B, 0x0000256D, 0x00002696, 0xFFFFDF44, 0x00000D0C, 0x0000188D, 
    0x00002568, 0xFFFFFCA2, 0x00001CF2, 0x00000F5D, 0xFFFFD3E9, 0xFFFFEC18, 0x00002A44, 0x00001EF8, 
    0x0000196D, 0x00000096, 0x00001509, 0xFFFFE4E7, 0xFFFFF3F4, 0x00003E48, 0x00001FCA, 0x00000306, 
    0x00002A46, 0x00003015, 0xFFFFE486, 0xFFFFF9F1, 0xFFFFDFCB, 0xFFFFE00B, 0xFFFFF48D, 0x00000BF1, 
    0x0000045B, 0xFFFFE17D, 0x00001915, 0xFFFFEF98, 0xFFFFE77A, 0x00001A71, 0xFFFFEDA1, 0x00000C7D, 
    0x00000736, 0x000003A5, 0x00001B2E, 0x000023D6, 0x0000029D, 0xFFFFF5E6, 0x00001772, 0x00000C85, 
    0x000032D2, 0x00003371, 0x0000357E, 0xFFFFFB83, 0xFFFFE14D, 0xFFFFE203, 0xFFFFE48D, 0x00000C42, 
    0xFFFFF839, 0xFFFFDA32, 0xFFFFE85E, 0x000019D3, 0xFFFFDACB, 0x00001BFE, 0x000035D7, 0x000016E9, 
    0x00000C9D, 0x0000394D, 0xFFFFF4CA, 0xFFFFD7EA, 0xFFFFF78F, 0xFFFFDA27, 0xFFFFF7EC, 0x00000823, 
    0x00000C0B, 0x00000020, 0xFFFFDB28, 0x00001CDD, 0xFFFFFA44, 0xFFFFF85C, 0xFFFFE927, 0xFFFFFECE, 
    0xFFFFD4FB, 0xFFFFF25D, 0x000005B9, 0x00000996, 0x0000023B, 0xFFFFDA89, 0xFFFFF817, 0xFFFFF930, 
    0x00001F8E, 0xFFFFFAEE, 0xFFFFE8A7, 0xFFFFED4A, 0x00000115, 0xFFFFD5A7, 0x00000604, 0x00000959, 
    0xFFFFDFBB, 0xFFFFFF63, 0xFFFFD602, 0xFFFFE096, 0xFFFFDCCF, 0xFFFFE3BC, 0xFFFFC326, 0xFFFFFE0E, 
    0xFFFFDB2A, 0xFFFFEE21, 0x000027F1, 0x00001485, 0xFFFFE539, 0xFFFFEC56, 0xFFFFFB46, 0x00004923, 
    0x000034A6, 0x00002C7C, 0x0000231F, 0x00000DC5, 0xFFFFF6EA, 0xFFFFEB5A, 0x0000281A, 0x00002573, 
    0x00001607, 0xFFFFDD57, 0x00000A94, 0xFFFFFD11, 0xFFFFEC66, 0xFFFFEE99, 0xFFFFC858, 0xFFFFE10E, 
    0xFFFFDFA7, 0xFFFFDB04, 0xFFFFFC8A, 0x00002541, 0x00001033, 0x00000087, 0xFFFFFCE9, 0x00002D5B, 
    0x00000D57, 0xFFFFFF64, 0xFFFFFAFF, 0x00002689, 0xFFFFFA56, 0x00000CC7, 0xFFFFE373, 0x000016EA, 
    0x000004F4, 0x00001E2A, 0x0000032F, 0xFFFFDD7D, 0xFFFFE646, 0xFFFFF83F, 0xFFFFE3B9, 0x00000162, 
    0x000005F7, 0x00000F33, 0xFFFFE51A, 0xFFFFE462, 0xFFFFE029, 0x000019A3, 0x000021B8, 0x00001A85, 
    0x0000065C, 0xFFFFD7F1, 0xFFFFDC3E, 0x000008BA, 0x000003BA, 0x00001315, 0xFFFFD5E2, 0xFFFFDD44, 
    0xFFFFAF73, 0xFFFFE591, 0xFFFFE4D3, 0x00000293, 0xFFFFD087, 0xFFFFDD84, 0x00000DD3, 0xFFFFEEE5, 
    0x000019DC, 0xFFFFDE5E, 0xFFFFD978, 0x0000003A, 0x0000039A, 0x00000107, 0xFFFFE66A, 0x00001D59, 
    0x000000E3, 0xFFFFFCB5, 0x00000C4A, 0xFFFFFA6E, 0x0000131A, 0xFFFFF93B, 0xFFFFF332, 0x000024EF, 
    0x00000817, 0xFFFFDE9F, 0xFFFFFFC6, 0xFFFFE678, 0x0000155E, 0x000008F9, 0x00000550, 0xFFFFD59A, 
    0x000006F3, 0xFFFFF4D2, 0x0000026A, 0x000025DD, 0xFFFFE07C, 0xFFFFFB82, 0xFFFFE4B7, 0x00000CE0, 
    0xFFFFF4AA, 0x00000449, 0xFFFFE99D, 0x00002561, 0x00002394, 0xFFFFCED0, 0xFFFFE52D, 0x00001EB6, 
    0xFFFFD73E, 0xFFFFECD0, 0xFFFFDDCD, 0xFFFFCB7D, 0xFFFFF9D8, 0xFFFFEE9C, 0xFFFFEE54, 0xFFFFD1BD, 
    0xFFFFF377, 0xFFFFE7D3, 0xFFFFF586, 0x0000198A, 0xFFFFFD23, 0xFFFFEC0B, 0xFFFFFC63, 0x0000053E, 
    0x000005D3, 0xFFFFFBFD, 0x00001FF9, 0xFFFFFD30, 0xFFFFEAD4, 0x000011F0, 0x000018C3, 0x0000164F, 
    0xFFFFFCE4, 0xFFFFD681, 0xFFFFE676, 0x000012B8, 0xFFFFEC02, 0x0000263B, 0xFFFFD9CC, 0xFFFFD556, 
    0xFFFFF603, 0xFFFFD79A, 0xFFFFC44E, 0x00000062, 0x00002245, 0xFFFFFDA2, 0x00003191, 0x000022CF, 
    0xFFFFF331, 0xFFFFF27E, 0xFFFFE3C1, 0xFFFFED3B, 0xFFFFFB95, 0x00001A30, 0x00001A9D, 0x00003B3B, 
    0x00003DF8, 0x00001BC0, 0x00000490, 0xFFFFE535, 0x00002DC2, 0xFFFFF5E3, 0xFFFFF327, 0xFFFFE7EA, 
    0xFFFFE504, 0xFFFFDBFF, 0xFFFFF2DD, 0x00002083, 0xFFFFF567, 0xFFFFF6C1, 0x0000073F, 0xFFFFE26E, 
    0xFFFFEB3E, 0x00000D58, 0x00000643, 0xFFFFE33D, 0x0000258C, 0x000013E9, 0x00002B6C, 0x000022C9, 
    0xFFFFE678, 0x00000381, 0x00002429, 0x000014DA, 0xFFFFE56A, 0xFFFFC8E4, 0xFFFFD6E9, 0x000009BE, 
    0xFFFFF72A, 0x000000E1, 0xFFFFD2AE, 0xFFFFDD1E, 0xFFFFF6BC, 0x00001AD0, 0xFFFFFF70, 0x00001275, 
    0xFFFFFCB4, 0xFFFFF3DF, 0x00001D55, 0x00001903, 0xFFFFF5B8, 0x00000470, 0xFFFFE8C2, 0x00001584, 
    0x000003B0, 0x00000AE3, 0xFFFFF97C, 0xFFFFE4C2, 0x00001F08, 0x00001776, 0xFFFFE886, 0x00000FD9, 
    0xFFFFF3A2, 0xFFFFE7DC, 0xFFFFD31A, 0xFFFFDC1F, 0xFFFFD991, 0x00002990, 0x00000903, 0x00000400, 
    0x000036F4, 0x00001157, 0x00004EB6, 0xFFFFE88C, 0xFFFFE419, 0xFFFFF0E2, 0xFFFFE915, 0x000002F9, 
    0x000015B2, 0x000025B7, 0xFFFFF93F, 0x00002734, 0x00003168, 0x000014BD, 0x000012A9, 0x00002392, 
    0x00001621, 0xFFFFFC2A, 0x00000796, 0x0000094B, 0x00000EC2, 0x0000259A, 0xFFFFEB6E, 0xFFFFFCAF, 
    0x00001E25, 0x00000CC8, 0x000016F5, 0x00002A2F, 0xFFFFE3B7, 0xFFFFF639, 0x00000468, 0xFFFFF3EA, 
    0xFFFFE53F, 0xFFFFF1BC, 0x0000130F, 0x00003E79, 0x0000235B, 0x000033BB, 0xFFFFF7D0, 0x000021E4, 
    0x0000064F, 0x0000239C, 0xFFFFF876, 0xFFFFEC23, 0xFFFFFADD, 0x000008DC, 0x00002FC5, 0x00000944, 
    0x00000CC4, 0xFFFFFBFD, 0x00001E87, 0xFFFFEE37, 0x000019EC, 0xFFFFC56B, 0x000012EE, 0xFFFFF444, 
    0x00000DBD, 0xFFFFD718, 0xFFFFEDB1, 0x00002B78, 0x0000244C, 0xFFFFFD71, 0x000000C1, 0xFFFFEC3B, 
    0x00000900, 0x00000A87, 0x00000C72, 0x00000ADF, 0xFFFFF910, 0x00001116, 0xFFFFE6C8, 0xFFFFFCFE, 
    0xFFFFD0E0, 0xFFFFDFA1, 0x00000EBD, 0x0000054F, 0x00001B04, 0xFFFFD384, 0x000008B6, 0x000007DF, 
    0xFFFFF8D3, 0x00002394, 0x00001B02, 0x00000D80, 0xFFFFC531, 0xFFFFF045, 0x0000052D, 0xFFFFCA91, 
    0xFFFFD3C8, 0xFFFFFA72, 0xFFFFD8A4, 0xFFFFFF92, 0x000014C2, 0xFFFFE8D2, 0xFFFFF5D7, 0xFFFFE8A6, 
    0xFFFFF160, 0xFFFFE50A, 0xFFFFC6A2, 0x000040D7, 0xFFFFCCC2, 0xFFFFFA39, 0x000003BC, 0xFFFFCD23, 
    0x00000C46, 0xFFFFF7D3, 0xFFFFE4E6, 0xFFFFC9EA, 0xFFFFD466, 0xFFFFD062, 0xFFFFCCA4, 0x00000A02, 
    0x00003BFE, 0xFFFFE9C9, 0xFFFFEEFD, 0xFFFFECD6, 0xFFFFE711, 0xFFFFF87E, 0xFFFFD922, 0xFFFFC75F, 
    0x0000FAAB, 0x0000FF22, 0x0000F459, 0x0000F19D, 0x0000F75B, 0x0001058C, 0x000103F7, 0x0000FF62, 
    0x000102AC, 0x000123FB, 0x0001091B, 0x0000EA6B, 0x0000F5F8, 0x0000FF73, 0x0001124B, 0x0000FB4C, 
    0x00010684, 0x0000F790, 0x00010B34, 0x0000FC46, 0x0000ED4C, 0x0000F683, 0x0000F8E3, 0x0000E575, 
    0x00011105, 0x0000FD13, 0x000106A5, 0x00010281, 0x0000E0ED, 0x0000EB29, 0x000105C4, 0x0000F3D7, 
    0x0000431F, 0x00003EB1, 0x00000873, 0xFFFFFE8B, 0x000021F2, 0x000017CA, 0x0000545A, 0x00004AA1, 
    0xFFFFD8E6, 0x00001714, 0x000012F7, 0x000026A6, 0x00001DB7, 0x00000E64, 0xFFFFFD64, 0xFFFFFD3E, 
    0x000000AC, 0x0000232E, 0x00000214, 0x000004F2, 0x00000E87, 0x0000234D, 0x00002BFF, 0x0000057E, 
    0x00007590, 0xFFFFF57A, 0xFFFFFDB9, 0x00002654, 0x00000512, 0x0000103F, 0x000018AA, 0x000055C2, 
    0x0000DADD, 0x0000BFCF, 0x00012B3D, 0x0000CEEF, 0x0000CFAA, 0x00009B38, 0x0000BF7C, 0x0000AD99, 
    0x0000C8C1, 0x0000AF39, 0x0000CF8B, 0x0000ED16, 0x0000A1BC, 0x0000D266, 0x0000BB1A, 0x0000C65A, 
    0x0000D151, 0x0000CDB5, 0x0000A3AA, 0x0000951D, 0x0000D1CF, 0x0000B648, 0x0000AC26, 0x0000BF7C, 
    0x0000CE05, 0x0000AEAD, 0x0000BB35, 0x0000D1F2, 0x0000B352, 0x0000EA83, 0x0000E40F, 0x0000B2BD, 
    0x00022B65, 0x0001434A, 0x0002DA02, 0x000177BD, 0x0001F703, 0x00010D67, 0x00014607, 0x00012B37, 
    0x000184BD, 0x000232BE, 0x00018325, 0x00019E2C, 0x0001198A, 0x0001E680, 0x00014DDD, 0x000188E7, 
    0x00017DFF, 0x00013F98, 0x00015881, 0x00011D50, 0x0001866B, 0x00015FAB, 0x00016B1B, 0x0001C655, 
    0x00015E39, 0x000149E7, 0x0001CA8B, 0x0001CCD8, 0x00019E28, 0x000176BD, 0x00023982, 0x0001193D, 
    0xFFFFF485, 0xFFFFF88C, 0xFFFFF02F, 0xFFFFD3A4, 0xFFFFBED4, 0xFFFFD84A, 0xFFFFF059, 0xFFFFE644, 
    0x00000726, 0x00001CF5, 0xFFFFF64A, 0x00000C1A, 0x00001521, 0xFFFFE8C9, 0x000000F5, 0xFFFFEDEF, 
    0xFFFFEB7F, 0xFFFFCD99, 0x00000568, 0xFFFFF8DB, 0x00000437, 0x00002AD5, 0x00001FC9, 0x000016CD, 
    0x00002910, 0xFFFFE7A8, 0xFFFFD0B4, 0x0000243B, 0x00000999, 0xFFFFF1C0, 0x000019C4, 0xFFFFE191, 
    0xFFFFE1F8, 0x000004FC, 0x000027E9, 0x00000293, 0xFFFFF4D6, 0x00000D47, 0x00001DF1, 0x00000DA5, 
    0xFFFFF657, 0xFFFFE243, 0xFFFFEE1D, 0x00000BB5, 0x00002138, 0x00000917, 0x000026BA, 0xFFFFF24F, 
    0x00002125, 0x000025BA, 0x000003F6, 0x000019A2, 0xFFFFE9C3, 0x00000F5D, 0x000015F8, 0x00000E25, 
    0x0000156E, 0x000008DE, 0x00002B4B, 0xFFFFFD76, 0xFFFFD3BD, 0xFFFFDDBF, 0xFFFFD283, 0xFFFFD773, 
    0x00001F78, 0x00002DBE, 0x00002510, 0xFFFFF9D4, 0xFFFFF171, 0x00001404, 0xFFFFE301, 0xFFFFE1FD, 
    0xFFFFE4A3, 0xFFFFFBDA, 0xFFFFE8E9, 0xFFFFF309, 0xFFFFCFA6, 0xFFFFE341, 0x00000F9E, 0xFFFFCC7C, 
    0x0000118B, 0x0000026F, 0x0000303B, 0x00002B5F, 0xFFFFE9A8, 0xFFFFED7E, 0xFFFFEE42, 0xFFFFF364, 
    0xFFFFD8BB, 0x0000054A, 0x0000299D, 0x000012BC, 0xFFFFEE03, 0xFFFFBD61, 0xFFFFD979, 0x00002715, 
    0xFFFFF867, 0x000002C8, 0x00000074, 0x00000678, 0xFFFFE498, 0x00000852, 0x00000BE0, 0x000009AB, 
    0xFFFFDE79, 0xFFFFF908, 0x0000037F, 0xFFFFFC6D, 0xFFFFFCD7, 0x0000142C, 0xFFFFF225, 0xFFFFFE7B, 
    0xFFFFEDEE, 0x000003B3, 0x00000543, 0x000000AA, 0x00001DEA, 0x0000168C, 0xFFFFD4CA, 0x00000342, 
    0xFFFFF377, 0x00000AC4, 0x00000FAD, 0x00000A5D, 0xFFFFF722, 0x000031AD, 0x000029BF, 0xFFFFDA70, 
    0xFFFFEA26, 0x000015DB, 0xFFFFDD19, 0xFFFFCFBB, 0x00000771, 0x00000AC6, 0x0000317E, 0xFFFFFD9A, 
    0x00000B0F, 0x00000692, 0xFFFFF36E, 0x0000038C, 0xFFFFE914, 0xFFFFF860, 0xFFFFCC45, 0x00001199, 
    0x00001719, 0xFFFFEB45, 0xFFFFE588, 0xFFFFD8E1, 0x00000244, 0xFFFFE89A, 0xFFFFF1C6, 0x00001780, 
    0xFFFFE6E7, 0x0000181F, 0xFFFFEEFF, 0x0000202B, 0xFFFFEFF0, 0x00000F2B, 0x00002541, 0x00000D0E, 
    0x000015FF, 0x0000203F, 0xFFFFFB32, 0x00001501, 0x0000177E, 0x00002528, 0x0000065C, 0xFFFFFCFE, 
    0x0000103D, 0xFFFFF313, 0xFFFFE7B8, 0xFFFFDE58, 0xFFFFE560, 0x000003D0, 0xFFFFE707, 0x000020FA, 
    0x0000281B, 0x00000FA8, 0xFFFFEFED, 0xFFFFFB67, 0x0000136A, 0xFFFFFA95, 0xFFFFFC4C, 0x00001995, 
    0x000001EF, 0x000022EF, 0xFFFFF9F9, 0xFFFFE7A1, 0x00001AE1, 0x00002948, 0xFFFFEBBD, 0x00000777, 
    0x00001E37, 0x00000405, 0x000002CE, 0xFFFFF57A, 0x000024E6, 0x0000020B, 0xFFFFFBF8, 0x00001FE9, 
    0xFFFFF2DA, 0x00000CCE, 0x0000127D, 0xFFFFFFED, 0x000014B2, 0x00001693, 0x00001A1A, 0x00001F18, 
    0x0000266D, 0xFFFFF585, 0xFFFFDFF2, 0xFFFFDBF9, 0xFFFFD6BE, 0xFFFFCA01, 0xFFFFD9A9, 0xFFFFFFE5, 
    0x00001287, 0xFFFFDA13, 0xFFFFFCF0, 0xFFFFF1CE, 0x0000097F, 0xFFFFF605, 0x000019E6, 0xFFFFF41C, 
    0xFFFFE3A4, 0xFFFFDE0D, 0x00000E38, 0xFFFFEB2D, 0x00000C8F, 0xFFFFF60B, 0x00000866, 0xFFFFF6B4, 
    0x00001043, 0xFFFFDF7E, 0xFFFFF934, 0xFFFFF8F8, 0xFFFFE14A, 0xFFFFE9BE, 0xFFFFDB25, 0xFFFFE241, 
    0xFFFFD93F, 0xFFFFF93F, 0xFFFFD171, 0xFFFFF942, 0x0000146E, 0x00000546, 0xFFFFEE4C, 0x00002BDF, 
    0x00000C81, 0x00000124, 0x00000561, 0x0000081E, 0x00002C58, 0x00000812, 0xFFFFF73F, 0x00000947, 
    0xFFFFD411, 0xFFFFF016, 0xFFFFE3E8, 0xFFFFF76E, 0x00001BAF, 0x00001570, 0x00000C14, 0xFFFFF130, 
    0xFFFFF67B, 0x00000924, 0xFFFFDE31, 0xFFFFE436, 0xFFFFF13D, 0x00000CB8, 0xFFFFF618, 0xFFFFEA26, 
    0xFFFFEDA4, 0xFFFFE746, 0xFFFFEC84, 0xFFFFF502, 0x0000036A, 0x00000BD1, 0x0000038F, 0xFFFFF35D, 
    0x00001A16, 0xFFFFFE58, 0x00001DE6, 0x00001906, 0x00002E8B, 0x00002D1B, 0x00000C06, 0xFFFFF8BE, 
    0x00001C4B, 0x00002271, 0xFFFFE48A, 0xFFFFF2D4, 0xFFFFF0F9, 0xFFFFFEFA, 0xFFFFFBC2, 0xFFFFDCF5, 
    0xFFFFE55B, 0xFFFFE8D3, 0xFFFFCC65, 0xFFFFDFE1, 0xFFFFF104, 0xFFFFE379, 0x00001572, 0xFFFFFB5B, 
    0xFFFFEB45, 0xFFFFCE70, 0xFFFFEBCF, 0xFFFFFF30, 0xFFFFC31D, 0xFFFFFF8B, 0x00001D81, 0x00000196, 
    0x0000229E, 0xFFFFF777, 0x00000BBB, 0xFFFFFA56, 0xFFFFFE4D, 0x00001AE0, 0xFFFFFB3A, 0xFFFFEC4B, 
    0xFFFFF2B5, 0x0000115C, 0x00001A27, 0xFFFFEC07, 0x00001404, 0xFFFFFFFC, 0x00000E68, 0x00002F0C, 
    0x00002054, 0x00001DA7, 0xFFFFF121, 0xFFFFFA24, 0x00000173, 0x00000F03, 0xFFFFEFDB, 0xFFFFCC65, 
    0xFFFFC2EF, 0xFFFFD4F1, 0xFFFFE197, 0xFFFFE0A8, 0x00001727, 0xFFFFEFDF, 0xFFFFEE39, 0xFFFFFB99, 
    0xFFFFDFED, 0x00001F0C, 0x00000E44, 0x00000C00, 0xFFFFD71E, 0xFFFFEBF6, 0xFFFFDAE8, 0x00000239, 
    0xFFFFE2C2, 0x00002574, 0xFFFFEA0E, 0xFFFFF3B2, 0xFFFFDBDF, 0xFFFFFA25, 0x00001626, 0x00002BE9, 
    0x00000A5D, 0xFFFFFCCE, 0x000009A5, 0xFFFFE633, 0xFFFFEBAB, 0x00002BBC, 0x00002EA3, 0xFFFFFB59, 
    0xFFFFE3C7, 0x00000C3D, 0xFFFFFFBE, 0x000010B2, 0xFFFFF0A5, 0xFFFFEAA9, 0xFFFFF0CD, 0xFFFFF051, 
    0xFFFFF318, 0xFFFFFE66, 0xFFFFD2F7, 0xFFFFF414, 0x00002465, 0x00001334, 0x00002207, 0x00002D54, 
    0x00002EFA, 0x000006B4, 0x00001712, 0x00002836, 0x0000320E, 0x00000447, 0x0000106E, 0x00001052, 
    0xFFFFF3A1, 0xFFFFFDC7, 0xFFFFE6DE, 0x00001AB9, 0x00002A04, 0x0000232C, 0x000029CA, 0x00002430, 
    0x00000342, 0x0000146D, 0x00001AE7, 0x00000C38, 0xFFFFF083, 0x000005C7, 0xFFFFFF6F, 0xFFFFF111, 
    0x00001CFD, 0x000008C8, 0xFFFFF4E0, 0x0000197A, 0xFFFFE1DC, 0xFFFFFE98, 0xFFFFFB02, 0xFFFFFD4C, 
    0x000009E4, 0xFFFFE657, 0xFFFFEBF7, 0x00000B7F, 0xFFFFC158, 0xFFFFAFA8, 0xFFFFCEC0, 0xFFFFE696, 
    0xFFFFCF9D, 0xFFFFEA7E, 0xFFFFF506, 0xFFFFE67E, 0xFFFFFDCE, 0xFFFFDAA8, 0xFFFFFCAC, 0x00001335, 
    0xFFFFEDD2, 0xFFFFFFE8, 0xFFFFE56C, 0x0000001C, 0x00001E3D, 0xFFFFF996, 0x00000DA6, 0x00000303, 
    0x0000022E, 0x00000254, 0xFFFFEB42, 0xFFFFE639, 0x000013D3, 0x00000459, 0x00001BE8, 0x0000165C, 
    0xFFFFEA85, 0xFFFFF6EA, 0x000000A5, 0x000016A6, 0x0000161D, 0x00000367, 0x00000479, 0x00000F83, 
    0x000026FC, 0xFFFFE6BD, 0xFFFFFAB7, 0x00001674, 0xFFFFF362, 0x000009EF, 0xFFFFF17C, 0xFFFFE04D, 
    0xFFFFE0AD, 0xFFFFDC1F, 0x0000112E, 0xFFFFFDD8, 0xFFFFF736, 0xFFFFE56D, 0x00000453, 0x00001EDF, 
    0x00000A7F, 0x000013E7, 0xFFFFEFE7, 0xFFFFD497, 0xFFFFFA19, 0xFFFFE949, 0xFFFFD3BF, 0xFFFFBBFD, 
    0x00000B59, 0x00001972, 0x00000642, 0xFFFFFA24, 0xFFFFF217, 0x00000915, 0x0000181F, 0x0000306F, 
    0x00001796, 0x00003AB5, 0x00001FEB, 0xFFFFF63E, 0xFFFFE4F1, 0xFFFFFFAF, 0x0000003C, 0x0000144B, 
    0x000002B8, 0x000015A8, 0xFFFFF637, 0x00000911, 0x00002506, 0xFFFFFD36, 0xFFFFF5CB, 0xFFFFE4D0, 
    0x000002F4, 0xFFFFF1AA, 0x0000058C, 0xFFFFC795, 0xFFFFC817, 0xFFFFE28F, 0x000004E2, 0x00001CC1, 
    0xFFFFEC58, 0xFFFFFB3F, 0x0000132B, 0x00000C20, 0xFFFFD750, 0xFFFFD6A4, 0xFFFFDCBB, 0x0000134C, 
    0xFFFFEB3D, 0x00001145, 0x00000385, 0x00000A3D, 0xFFFFD6CE, 0x00000E9A, 0xFFFFDB08, 0x00000FA1, 
    0x000006F5, 0x00000AFE, 0xFFFFF490, 0x0000162C, 0x00001241, 0xFFFFFDF8, 0x000014EC, 0x00001BDE, 
    0xFFFFFF35, 0xFFFFEF93, 0xFFFFFDC4, 0xFFFFE4E3, 0xFFFFED01, 0xFFFFEA5E, 0xFFFFEEC9, 0xFFFFD734, 
    0xFFFFEA10, 0xFFFFFB8B, 0xFFFFEEA1, 0xFFFFE72C, 0x00002164, 0x00001DFB, 0x00003025, 0x00000F06, 
    0x00000D90, 0x000015DA, 0x00003CFB, 0xFFFFDF92, 0xFFFFE227, 0xFFFFED4A, 0xFFFFFF12, 0xFFFFDA44, 
    0xFFFFFB5F, 0x00001D78, 0xFFFFF03A, 0x000005F0, 0x000006FB, 0xFFFFEF4A, 0x00000D37, 0x0000099B, 
    0x000000B6, 0x00002564, 0x00002871, 0x00000035, 0x000020B3, 0x000005A7, 0x00001643, 0xFFFFFA1E, 
    0xFFFFD29F, 0xFFFFE22F, 0xFFFFB878, 0xFFFFD1BD, 0x00000125, 0x00003442, 0x00001E8B, 0x00000DAF, 
    0x00001727, 0x000006F4, 0x00000A41, 0xFFFFF549, 0xFFFFF562, 0xFFFFEAE3, 0x00001301, 0xFFFFF225, 
    0x00000048, 0x000014D6, 0x00001818, 0xFFFFF0F1, 0x00000C75, 0x00001E1F, 0x00000D68, 0xFFFFFF71, 
    0x0000109F, 0xFFFFF30C, 0x00000488, 0xFFFFE662, 0xFFFFE38F, 0x000015FA, 0xFFFFE1D2, 0xFFFFC7AE, 
    0xFFFFE339, 0x00000E68, 0x00000396, 0x00000647, 0xFFFFFBCE, 0x00001C97, 0x00000FB7, 0xFFFFD1FF, 
    0xFFFFD56B, 0xFFFFFBC2, 0x00002DD1, 0x00001A25, 0x0000121B, 0xFFFFF267, 0xFFFFFBF6, 0x00001455, 
    0x0000185C, 0xFFFFEF0C, 0x00001439, 0x00000969, 0xFFFFF024, 0x00002221, 0x0000085A, 0xFFFFDD3F, 
    0xFFFFEFDE, 0xFFFFE29D, 0xFFFFEBFF, 0x00002DD8, 0x0000252D, 0xFFFFF093, 0xFFFFFDBC, 0x00000720, 
    0xFFFFCCEC, 0xFFFFD378, 0xFFFFEF1D, 0xFFFFD58F, 0xFFFFD1A4, 0xFFFFFAD6, 0xFFFFFD30, 0x00000151, 
    0xFFFFE97F, 0xFFFFFCE5, 0x0000166B, 0xFFFFE962, 0x000025BC, 0xFFFFF414, 0xFFFFEAE4, 0x000033BF, 
    0x00001755, 0x00002C6D, 0x0000108B, 0x00000B5C, 0xFFFFF314, 0x00000A9E, 0x00000C1F, 0x000014B8, 
    0x0000143E, 0xFFFFE4C6, 0xFFFFDD1A, 0xFFFFF2DA, 0xFFFFD182, 0xFFFFEE7C, 0xFFFFEEF9, 0xFFFFD4BC, 
    0x00000EAE, 0xFFFFEF61, 0xFFFFF6CB, 0xFFFFE4C4, 0x00000CE8, 0xFFFFEACA, 0x00000767, 0xFFFFEB6F, 
    0x00001195, 0x000001E3, 0xFFFFF032, 0x00000393, 0xFFFFF166, 0x00000440, 0x00000F80, 0x00001DA2, 
    0xFFFFF5E9, 0xFFFFF362, 0x00002FEE, 0x00002B25, 0x00002CF3, 0x00001D40, 0x000024A8, 0x000005DB, 
    0x000006C5, 0xFFFFF0AB, 0x000013AC, 0xFFFFFE30, 0xFFFFF3C5, 0xFFFFFC5F, 0x00002012, 0x00001364, 
    0x00001B8A, 0x00000764, 0x0000069A, 0x00002357, 0xFFFFFADD, 0xFFFFFB3E, 0x00001050, 0xFFFFF2EE, 
    0xFFFFE2F8, 0xFFFFE429, 0xFFFFF188, 0x0000297A, 0x00001427, 0x000036DA, 0x00001920, 0x000024C7, 
    0x000021D2, 0x00000842, 0xFFFFE794, 0x00001933, 0x0000035D, 0x000011B5, 0x00000758, 0x00002F07, 
    0xFFFFFF60, 0x0000201D, 0x0000088D, 0xFFFFF9C5, 0x00000E01, 0x00000F8C, 0x00002B04, 0xFFFFC82B, 
    0xFFFFEE18, 0xFFFFFD1E, 0x0000014C, 0xFFFFDACD, 0xFFFFDF24, 0xFFFFE886, 0xFFFFE625, 0xFFFFEAB4, 
    0xFFFFFDFF, 0xFFFFFC06, 0xFFFFE14E, 0xFFFFF6D8, 0xFFFFE0B7, 0xFFFFDC96, 0xFFFFF21F, 0xFFFFD6FE, 
    0xFFFFF9E1, 0xFFFFF50B, 0xFFFFED53, 0xFFFFEDB9, 0xFFFFE7F8, 0xFFFFE305, 0xFFFFE1BE, 0x0000151A, 
    0x00000354, 0xFFFFDED3, 0x00000074, 0xFFFFEFD7, 0xFFFFDBA7, 0xFFFFE7E1, 0xFFFFDD20, 0xFFFFE456, 
    0xFFFFF77E, 0xFFFFDCEA, 0x0000012B, 0x000003C7, 0x000005A3, 0x00000AB1, 0x00000427, 0x00001E94, 
    0xFFFFEBB8, 0xFFFFEDE2, 0xFFFFF05C, 0x000029A7, 0xFFFFE2C5, 0xFFFFFDEF, 0x00000FA3, 0x00001339, 
    0x00001D6B, 0xFFFFD3A7, 0xFFFFFCB9, 0xFFFFEEA1, 0x000013D4, 0xFFFFF938, 0x000011BC, 0xFFFFF18B, 
    0x0000064E, 0xFFFFEFD1, 0x00000C23, 0x00002575, 0xFFFFEC0F, 0x00000FEA, 0x0000278E, 0xFFFFE870, 
    0x00000B6A, 0x0000082D, 0x00000413, 0xFFFFF56F, 0xFFFFEB20, 0x00001C29, 0xFFFFFFBF, 0x0000157B, 
    0x0000024C, 0xFFFFF5A5, 0x0000264B, 0xFFFFFB51, 0x0000178B, 0x00000B2A, 0x00001AA3, 0x000023F5, 
    0x00000B58, 0x00000C18, 0xFFFFF2C5, 0xFFFFF53F, 0xFFFFF3A0, 0x00000246, 0xFFFFE484, 0xFFFFF75A, 
    0xFFFFF5E8, 0x0000076C, 0x00000ADB, 0xFFFFEECD, 0x0000025F, 0x0000173A, 0xFFFFCB01, 0x00000374, 
    0xFFFFB726, 0xFFFFB154, 0xFFFFC808, 0xFFFFD7F6, 0xFFFFF072, 0xFFFFFE0D, 0x000001BC, 0x00000282, 
    0xFFFFF03C, 0x000005CB, 0xFFFFE4D1, 0xFFFFDEEF, 0xFFFFE92F, 0x00001062, 0xFFFFF4A9, 0x00000C39, 
    0x00000422, 0xFFFFEFBA, 0xFFFFC59E, 0xFFFFEBB4, 0x00001121, 0xFFFFED5F, 0xFFFFE3C2, 0x00000B08, 
    0xFFFFEF38, 0xFFFFD5E6, 0xFFFFE0F1, 0xFFFFE93D, 0x00000BCC, 0x000007E7, 0x000004C3, 0x00002001, 
    0xFFFFED1D, 0xFFFFF347, 0xFFFFE578, 0xFFFFD84B, 0x00000292, 0xFFFFDC8E, 0xFFFFE612, 0x00000FD7, 
    0xFFFFE1BB, 0x0000186A, 0x000005EE, 0x00000609, 0x00001419, 0x000005DB, 0x00002600, 0xFFFFFE5D, 
    0x00000E6B, 0x00001423, 0x00001AEB, 0xFFFFEFA6, 0xFFFFF3CC, 0x00000E16, 0xFFFFFC83, 0x00001B18, 
    0xFFFFE4F1, 0xFFFFE676, 0x000011BB, 0xFFFFFA3E, 0x000008F2, 0x00001ACF, 0x000010B6, 0x00000C6A, 
    0x00001DEF, 0x00000E22, 0x0000167D, 0xFFFFDB63, 0xFFFFEE9E, 0xFFFFF71E, 0xFFFFF164, 0xFFFFEFED, 
    0xFFFFDCC7, 0x0000026B, 0x00000E39, 0xFFFFF397, 0xFFFFD966, 0xFFFFE15E, 0xFFFFD85D, 0xFFFFDEA3, 
    0xFFFFE414, 0xFFFFECB3, 0xFFFFF812, 0x0000111B, 0xFFFFEE22, 0xFFFFFE5F, 0xFFFFE5E9, 0xFFFFF464, 
    0xFFFFF542, 0x0000071D, 0x0000250F, 0x0000131E, 0xFFFFF65C, 0xFFFFFB8C, 0x000026CA, 0x00001E95, 
    0x00001A35, 0xFFFFED3A, 0x000020D4, 0x000030A9, 0x00003704, 0x00000534, 0xFFFFE9CE, 0x00002C33, 
    0x00002A6A, 0x00001482, 0xFFFFEBB2, 0xFFFFE04B, 0x00001625, 0x00000701, 0x00000815, 0x00000B41, 
    0x000031B6, 0xFFFFD857, 0xFFFFDC35, 0xFFFFD174, 0xFFFFCE43, 0xFFFFC917, 0x000001C5, 0xFFFFFEE3, 
    0x000027DC, 0x00000FCF, 0xFFFFE621, 0x000004A1, 0xFFFFF1ED, 0x0000046B, 0x000000D0, 0x00000E15, 
    0x000033B8, 0x00001339, 0x00002866, 0x00000D01, 0xFFFFF9FB, 0xFFFFD23E, 0xFFFFF3C4, 0xFFFFDE41, 
    0xFFFFE4C7, 0xFFFFEF19, 0xFFFFFE73, 0x00000F98, 0x00000460, 0x000012F1, 0x00000764, 0xFFFFED14, 
    0x000019E9, 0x00000EDE, 0xFFFFF734, 0x00001858, 0x00000B10, 0xFFFFFA15, 0x00001043, 0x000005CF, 
    0x000016E6, 0xFFFFE51F, 0x00000063, 0xFFFFD3D2, 0xFFFFC328, 0xFFFFBBBF, 0xFFFFFA6D, 0x000028BA, 
    0xFFFFF5E3, 0x00000979, 0xFFFFED15, 0x00001DBB, 0xFFFFF112, 0x00000F4C, 0xFFFFFB12, 0x00000DA2, 
    0x00000441, 0x0000051A, 0x000011B1, 0xFFFFFBD6, 0xFFFFF3B2, 0xFFFFFF1F, 0x000004E1, 0xFFFFEA0D, 
    0x00001616, 0x000009F6, 0x00002D31, 0x000008F0, 0x00002446, 0x00000B37, 0x000010F2, 0x00002714, 
    0xFFFFFC79, 0x000021AE, 0x00001D87, 0x00000228, 0xFFFFED68, 0x000021E8, 0xFFFFEC24, 0xFFFFE3CC, 
    0xFFFFFF00, 0x000024A3, 0x000006D1, 0x0000084F, 0x0000154D, 0x0000086A, 0x00001454, 0x000016CA, 
    0x000019C6, 0x00001BF0, 0xFFFFE882, 0x00003662, 0x00001F7A, 0xFFFFFA91, 0x000019C6, 0x0000099F, 
    0x000029E6, 0xFFFFFDDB, 0x000025FF, 0x0000060E, 0x00001348, 0xFFFFE852, 0x000002CC, 0x0000345C, 
    0x000024D0, 0x000043FD, 0xFFFFF2DE, 0xFFFFDEA9, 0xFFFFEA9C, 0xFFFFCA8E, 0xFFFFD6C6, 0xFFFFF5C0, 
    0x0000148D, 0xFFFFDBE3, 0xFFFFE82D, 0xFFFFE36F, 0xFFFFEA83, 0x00001213, 0x0000169C, 0xFFFFF5B6, 
    0x000010B9, 0x000001C3, 0x000021FD, 0x00000A58, 0x00000DBA, 0x0000115C, 0xFFFFF13F, 0xFFFFFC7B, 
    0x00001504, 0xFFFFE751, 0x00000017, 0xFFFFF99E, 0x00000D8D, 0x00001224, 0x00000535, 0xFFFFDF85, 
    0xFFFFD81B, 0x000007E7, 0x00001183, 0xFFFFE981, 0x0000078A, 0x00003A26, 0x0000296B, 0x00000623, 
    0x00000CCF, 0x000003C6, 0xFFFFD8D0, 0xFFFFD9BC, 0xFFFFE0B3, 0x000003A3, 0xFFFFF867, 0xFFFFDC9F, 
    0xFFFFD926, 0xFFFFD3F9, 0x00000379, 0xFFFFC95C, 0x00000163, 0xFFFFEC97, 0xFFFFFA1C, 0xFFFFEF1C, 
    0xFFFFF606, 0x000017C1, 0x0000059A, 0x00001D33, 0xFFFFEF91, 0x000005C5, 0x000016F0, 0x00001FC3, 
    0x0000247A, 0x00001144, 0x000006B9, 0x00000D2F, 0xFFFFE208, 0xFFFFF2C5, 0xFFFFE657, 0xFFFFF3F8, 
    0xFFFFFD3E, 0xFFFFD619, 0xFFFFE8F2, 0xFFFFF883, 0xFFFFF77D, 0xFFFFF4E9, 0x000003C4, 0x000025AB, 
    0x0000220B, 0x0000095F, 0x000027D8, 0x0000333C, 0x00001E72, 0x00000C7D, 0xFFFFF648, 0x0000085F, 
    0x00001313, 0xFFFFEC0F, 0x0000129B, 0xFFFFEBB6, 0xFFFFD62B, 0xFFFFE258, 0xFFFFEA1E, 0xFFFFF262, 
    0xFFFFE6FE, 0xFFFFEFF0, 0xFFFFD8B7, 0x000000A0, 0x00000135, 0xFFFFDBA9, 0x00000CE3, 0x00001B78, 
    0x00000818, 0x0000155A, 0x000009EF, 0xFFFFF68F, 0x00001744, 0xFFFFF962, 0xFFFFEC9E, 0xFFFFF7F5, 
    0x00000BF2, 0x00001E3D, 0x00000669, 0xFFFFFAF9, 0x000015C2, 0x00000D55, 0x00001C03, 0xFFFFF27E, 
    0x00000B6D, 0x00002C2A, 0xFFFFE393, 0xFFFFFC77, 0xFFFFFAF2, 0x000010CE, 0x000006D1, 0xFFFFDC5E, 
    0x00000DB0, 0x000016EB, 0x0000081B, 0xFFFFF4B1, 0x00000FA9, 0x00001294, 0x00002EBD, 0x000037A7, 
    0x000031B4, 0xFFFFF791, 0xFFFFF1EE, 0x000003AF, 0x00002A4E, 0x00000BC7, 0x000013BC, 0x0000098D, 
    0x000012FC, 0x00000EA9, 0xFFFFF70D, 0x0000007D, 0xFFFFD6FB, 0x00001656, 0xFFFFEB76, 0x0000008A, 
    0x00002154, 0xFFFFEF75, 0x000005CF, 0xFFFFF5D5, 0x0000166C, 0x000003A7, 0xFFFFF989, 0xFFFFD582, 
    0x000008C0, 0x000004DB, 0x00003B48, 0x0000146D, 0x00003899, 0x000023D9, 0x00000F37, 0x0000166E, 
    0x00000A8D, 0x000013EB, 0x00001590, 0x0000220E, 0xFFFFE2ED, 0xFFFFF8A6, 0x00000406, 0xFFFFDDCB, 
    0x000005ED, 0x000011FB, 0xFFFFE6FE, 0x00000DA7, 0xFFFFEE69, 0x000023B0, 0x00000FB5, 0x00001778, 
    0xFFFFF3FB, 0x00000AC9, 0xFFFFF582, 0xFFFFED2C, 0xFFFFF682, 0xFFFFE00C, 0xFFFFDEC9, 0xFFFFC588, 
    0xFFFFCC37, 0xFFFFBD3F, 0xFFFFB995, 0xFFFFDC5B, 0xFFFFD2BE, 0x0000063A, 0xFFFFFB21, 0x00000102, 
    0xFFFFFC0D, 0x00001928, 0x00001B6F, 0x00000520, 0xFFFFF58F, 0x00000CA9, 0x00002FF2, 0xFFFFE226, 
    0xFFFFCB43, 0xFFFFDE4A, 0xFFFFF489, 0x0000076A, 0xFFFFEAA2, 0xFFFFEB54, 0xFFFFDFC8, 0x00000D27, 
    0xFFFFFCB1, 0x000016A3, 0x00002F4B, 0x000005DB, 0x000010FE, 0x00002826, 0x000011EF, 0x00001EA1, 
    0xFFFFF1B1, 0x000009EB, 0xFFFFFA9C, 0xFFFFEE24, 0xFFFFF992, 0xFFFFF3FF, 0xFFFFEB7D, 0xFFFFD6E1, 
    0xFFFFF1A8, 0xFFFFFDE1, 0x00000D27, 0xFFFFFADA, 0x000017F7, 0xFFFFF129, 0xFFFFEB03, 0xFFFFFD7F, 
    0x0000176B, 0xFFFFF85B, 0xFFFFDED7, 0xFFFFF150, 0xFFFFEF6E, 0xFFFFBF9B, 0xFFFFB34A, 0x00001F79, 
    0x00002612, 0x000024E2, 0x00001700, 0x00001BDC, 0x00000420, 0xFFFFD691, 0xFFFFE880, 0x00001367, 
    0x00000F13, 0xFFFFD3E6, 0x000004AF, 0xFFFFF4BF, 0x000011F7, 0xFFFFEE3B, 0x000018B5, 0xFFFFD815, 
    0xFFFFEA8E, 0x00000A33, 0xFFFFE90B, 0x0000113E, 0x000009E2, 0xFFFFE03C, 0xFFFFD84D, 0xFFFFDF61, 
    0x00000EBD, 0x00000048, 0xFFFFF97A, 0xFFFFE2E4, 0xFFFFD9CB, 0x00001860, 0x000010C5, 0x00000F74, 
    0x00000159, 0xFFFFC6C2, 0xFFFFF713, 0xFFFFE334, 0xFFFFEA05, 0xFFFFE668, 0x00001571, 0xFFFFFEF0, 
    0x00001910, 0xFFFFFF99, 0x00001B96, 0xFFFFEEC0, 0xFFFFDED0, 0xFFFFF9E8, 0x00001488, 0xFFFFF40C, 
